{
  "version": "1.0",
  "truncation": null,
  "padding": null,
  "added_tokens": [
    {
      "id": 0,
      "content": "<unk>",
      "single_word": false,
      "lstrip": false,
      "rstrip": false,
      "normalized": false,
      "special": true
    },
    {
      "id": 1,
      "content": "<pad>",
      "single_word": false,
      "lstrip": false,
      "rstrip": false,
      "normalized": false,
      "special": true
    },
    {
      "id": 2,
      "content": "</s>",
      "single_word": false,
      "lstrip": false,
      "rstrip": false,
      "normalized": false,
      "special": true
    },
    {
      "id": 3,
      "content": "<image>",
      "single_word": false,
      "lstrip": false,
      "rstrip": false,
      "normalized": false,
      "special": true
    },
    {
      "id": 4,
      "content": "<boa>",
      "single_word": false,
      "lstrip": false,
      "rstrip": false,
      "normalized": false,
      "special": true
    },
    {
      "id": 5,
      "content": "<eoa>",
      "single_word": false,
      "lstrip": false,
      "rstrip": false,
      "normalized": false,
      "special": true
    }
  ],
  "normalizer": null,
  "pre_tokenizer": {
    "type": "ByteLevel",
    "add_prefix_space": false,
    "trim_offsets": true,
    "use_regex": true
  },
  "post_processor": null,
  "decoder": {
    "type": "ByteLevel",
    "add_prefix_space": true,
    "trim_offsets": true,
    "use_regex": true
  },
  "model": {
    "type": "BPE",
    "dropout": null,
    "unk_token": "<unk>",
    "continuing_subword_prefix": null,
    "end_of_word_suffix": null,
    "fuse_unk": false,
    "byte_fallback": false,
    "ignore_merges": false,
    "vocab": {
      "<unk>": 0,
      "<pad>": 1,
      "</s>": 2,
      "<image>": 3,
      "<boa>": 4,
      "<eoa>": 5,
      "!": 6,
      "\"": 7,
      "#": 8,
      "$": 9,
      "%": 10,
      "&": 11,
      "'": 12,
      "(": 13,
      ")": 14,
      "*": 15,
      "+": 16,
      ",": 17,
      "-": 18,
      ".": 19,
      "/": 20,
      "0": 21,
      "1": 22,
      "2": 23,
      "3": 24,
      "4": 25,
      "5": 26,
      "6": 27,
      "7": 28,
      "8": 29,
      "9": 30,
      ":": 31,
      ";": 32,
      "<": 33,
      "=": 34,
      ">": 35,
      "?": 36,
      "@": 37,
      "A": 38,
      "B": 39,
      "C": 40,
      "D": 41,
      "E": 42,
      "F": 43,
      "G": 44,
      "H": 45,
      "I": 46,
      "J": 47,
      "K": 48,
      "L": 49,
      "M": 50,
      "N": 51,
      "O": 52,
      "P": 53,
      "Q": 54,
      "R": 55,
      "S": 56,
      "T": 57,
      "U": 58,
      "V": 59,
      "W": 60,
      "X": 61,
      "Y": 62,
      "Z": 63,
      "[": 64,
      "\\": 65,
      "]": 66,
      "^": 67,
      "_": 68,
      "`": 69,
      "a": 70,
      "b": 71,
      "c": 72,
      "d": 73,
      "e": 74,
      "f": 75,
      "g": 76,
      "h": 77,
      "i": 78,
      "j": 79,
      "k": 80,
      "l": 81,
      "m": 82,
      "n": 83,
      "o": 84,
      "p": 85,
      "q": 86,
      "r": 87,
      "s": 88,
      "t": 89,
      "u": 90,
      "v": 91,
      "w": 92,
      "x": 93,
      "y": 94,
      "z": 95,
      "{": 96,
      "|": 97,
      "}": 98,
      "~": 99,
      "¡": 100,
      "¢": 101,
      "£": 102,
      "¤": 103,
      "¥": 104,
      "¦": 105,
      "§": 106,
      "¨": 107,
      "©": 108,
      "ª": 109,
      "«": 110,
      "¬": 111,
      "®": 112,
      "¯": 113,
      "°": 114,
      "±": 115,
      "²": 116,
      "³": 117,
      "´": 118,
      "µ": 119,
      "¶": 120,
      "·": 121,
      "¸": 122,
      "¹": 123,
      "º": 124,
      "»": 125,
      "¼": 126,
      "½": 127,
      "¾": 128,
      "¿": 129,
      "À": 130,
      "Á": 131,
      "Â": 132,
      "Ã": 133,
      "Ä": 134,
      "Å": 135,
      "Æ": 136,
      "Ç": 137,
      "È": 138,
      "É": 139,
      "Ê": 140,
      "Ë": 141,
      "Ì": 142,
      "Í": 143,
      "Î": 144,
      "Ï": 145,
      "Ð": 146,
      "Ñ": 147,
      "Ò": 148,
      "Ó": 149,
      "Ô": 150,
      "Õ": 151,
      "Ö": 152,
      "×": 153,
      "Ø": 154,
      "Ù": 155,
      "Ú": 156,
      "Û": 157,
      "Ü": 158,
      "Ý": 159,
      "Þ": 160,
      "ß": 161,
      "à": 162,
      "á": 163,
      "â": 164,
      "ã": 165,
      "ä": 166,
      "å": 167,
      "æ": 168,
      "ç": 169,
      "è": 170,
      "é": 171,
      "ê": 172,
      "ë": 173,
      "ì": 174,
      "í": 175,
      "î": 176,
      "ï": 177,
      "ð": 178,
      "ñ": 179,
      "ò": 180,
      "ó": 181,
      "ô": 182,
      "õ": 183,
      "ö": 184,
      "÷": 185,
      "ø": 186,
      "ù": 187,
      "ú": 188,
      "û": 189,
      "ü": 190,
      "ý": 191,
      "þ": 192,
      "ÿ": 193,
      "Ā": 194,
      "ā": 195,
      "Ă": 196,
      "ă": 197,
      "Ą": 198,
      "ą": 199,
      "Ć": 200,
      "ć": 201,
      "Ĉ": 202,
      "ĉ": 203,
      "Ċ": 204,
      "ċ": 205,
      "Č": 206,
      "č": 207,
      "Ď": 208,
      "ď": 209,
      "Đ": 210,
      "đ": 211,
      "Ē": 212,
      "ē": 213,
      "Ĕ": 214,
      "ĕ": 215,
      "Ė": 216,
      "ė": 217,
      "Ę": 218,
      "ę": 219,
      "Ě": 220,
      "ě": 221,
      "Ĝ": 222,
      "ĝ": 223,
      "Ğ": 224,
      "ğ": 225,
      "Ġ": 226,
      "ġ": 227,
      "Ģ": 228,
      "ģ": 229,
      "Ĥ": 230,
      "ĥ": 231,
      "Ħ": 232,
      "ħ": 233,
      "Ĩ": 234,
      "ĩ": 235,
      "Ī": 236,
      "ī": 237,
      "Ĭ": 238,
      "ĭ": 239,
      "Į": 240,
      "į": 241,
      "İ": 242,
      "ı": 243,
      "Ĳ": 244,
      "ĳ": 245,
      "Ĵ": 246,
      "ĵ": 247,
      "Ķ": 248,
      "ķ": 249,
      "ĸ": 250,
      "Ĺ": 251,
      "ĺ": 252,
      "Ļ": 253,
      "ļ": 254,
      "Ľ": 255,
      "ľ": 256,
      "Ŀ": 257,
      "ŀ": 258,
      "Ł": 259,
      "ł": 260,
      "Ń": 261,
      "ä¸": 262,
      "ï¼": 263,
      "ï¼Į": 264,
      "çļ": 265,
      "çļĦ": 266,
      "ãĢ": 267,
      "ãĢĤ": 268,
      "ä»": 269,
      "äº": 270,
      "åı": 271,
      "æľ": 272,
      "åħ": 273,
      "è¿": 274,
      "æĪ": 275,
      "æĺ": 276,
      "è¯": 277,
      "ä¸Ģ": 278,
      "å¤": 279,
      "åĪ": 280,
      "ä½": 281,
      "çĶ": 282,
      "å®": 283,
      "åľ": 284,
      "æĸ": 285,
      "åĲ": 286,
      "åĴ": 287,
      "å°": 288,
      "åĴĮ": 289,
      "æĺ¯": 290,
      "ä¸ª": 291,
      "ç»": 292,
      "ä¹": 293,
      "åŃ": 294,
      "åĬ": 295,
      "ä»¥": 296,
      "ï¼ļ": 297,
      "ãĢģ": 298,
      "åľ¨": 299,
      "è®": 300,
      "æĪĳ": 301,
      "æľī": 302,
      "æķ": 303,
      "æĹ": 304,
      "åĽ": 305,
      "å¹": 306,
      "ä¸Ń": 307,
      "è¿Ļ": 308,
      "éĩ": 309,
      "åı¯": 310,
      "äºĨ": 311,
      "æĿ": 312,
      "åĩ": 313,
      "è¡": 314,
      "äºº": 315,
      "åº": 316,
      "éĢ": 317,
      "å¸": 318,
      "ä¸º": 319,
      "ĥ½": 320,
      "çī": 321,
      "å¥": 322,
      "é¢": 323,
      "ä¼": 324,
      "çļĦæ": 325,
      "å¾": 326,
      "åį": 327,
      "åĨ": 328,
      "æĸĩ": 329,
      "æŀ": 330,
      "ç§": 331,
      "éĹ": 332,
      "âĢ": 333,
      "æī": 334,
      "å¼": 335,
      "è¦": 336,
      "çĶ¨": 337,
      "åĮ": 338,
      "è¦ģ": 339,
      "è§": 340,
      "æł": 341,
      "æŃ": 342,
      "å½": 343,
      "å¯": 344,
      "èĥ½": 345,
      "å·": 346,
      "éĿ": 347,
      "ä¸ĭ": 348,
      "çŃ": 349,
      "ä»¬": 350,
      "åı¯ä»¥": 351,
      "ä¸į": 352,
      "çĶŁ": 353,
      "çİ": 354,
      "ä¸Ģä¸ª": 355,
      "æĢ": 356,
      "èĢ": 357,
      "çĽ": 358,
      "æĪĲ": 359,
      "æķ°": 360,
      "å°ı": 361,
      "æ³": 362,
      "å¦": 363,
      "åĵ": 364,
      "æĦ": 365,
      "åĩº": 366,
      "æı": 367,
      "åŃĲ": 368,
      "åĪ°": 369,
      "æ°": 370,
      "åĳ": 371,
      "åİ": 372,
      "æĬ": 373,
      "æĥ": 374,
      "å¦Ĥ": 375,
      "æ¯": 376,
      "æĿ¥": 377,
      "èĩ": 378,
      "ï¼Ł": 379,
      "ä»ĸ": 380,
      "çĲ": 381,
      "ä¸Ĭ": 382,
      "åĪĨ": 383,
      "ä¿": 384,
      "æĭ": 385,
      "è¾": 386,
      "çº": 387,
      "é¢ĺ": 388,
      "æĹ¶": 389,
      "è¡Į": 390,
      "ä½ł": 391,
      "ä¾": 392,
      "å¿": 393,
      "äºİ": 394,
      "å¥½": 395,
      "æŀľ": 396,
      "æİ": 397,
      "æį": 398,
      "åŃ¦": 399,
      "è´": 400,
      "åľ°": 401,
      "æĽ": 402,
      "æµ": 403,
      "ç®": 404,
      "å¤§": 405,
      "çī©": 406,
      "æľ¬": 407,
      "å°Ĩ": 408,
      "èµ": 409,
      "ç±": 410,
      "æĶ": 411,
      "å¤ļ": 412,
      "å¤©": 413,
      "ç»Ļ": 414,
      "æĻ": 415,
      "æĸ¹": 416,
      "çŃī": 417,
      "å¯¹": 418,
      "èī": 419,
      "éĿ¢": 420,
      "æıĲ": 421,
      "æ¬": 422,
      "å®ļ": 423,
      "éľ": 424,
      "ä½ľ": 425,
      "é£": 426,
      "å±": 427,
      "åĬ¨": 428,
      "å®ĥ": 429,
      "èĩª": 430,
      "å¹¶": 431,
      "æľĢ": 432,
      "äºĽ": 433,
      "çļĦç": 434,
      "åħ¶": 435,
      "æ¸": 436,
      "ä¼ļ": 437,
      "æĮ": 438,
      "æĺİ": 439,
      "æį®": 440,
      "æĤ": 441,
      "çİ°": 442,
      "âĢľ": 443,
      "æ³ķ": 444,
      "âĢĿ": 445,
      "éĹ®": 446,
      "åħ³": 447,
      "éĻ": 448,
      "åĽł": 449,
      "è½": 450,
      "åı¥": 451,
      "è¯Ń": 452,
      "æ²": 453,
      "æĽ´": 454,
      "éľĢ": 455,
      "ç§į": 456,
      "æĪĸ": 457,
      "æ´": 458,
      "åĬł": 459,
      "éģ": 460,
      "è¿ĩ": 461,
      "çĦ": 462,
      "åıĳ": 463,
      "ç±»": 464,
      "ç«": 465,
      "è¡¨": 466,
      "çĤ": 467,
      "ç³": 468,
      "ä½ĵ": 469,
      "æĪĳä»¬": 470,
      "éĺ": 471,
      "èĬ": 472,
      "è¯·": 473,
      "å¸¸": 474,
      "åĵģ": 475,
      "è¿Ľ": 476,
      "æ±": 477,
      "æĦŁ": 478,
      "å¾Ĺ": 479,
      "è¯į": 480,
      "åĲĮ": 481,
      "ä½¿": 482,
      "èī²": 483,
      "ä¹Ī": 484,
      "çĦ¶": 485,
      "åŁ": 486,
      "çľ": 487,
      "é«": 488,
      "ç¾": 489,
      "åī": 490,
      "åº¦": 491,
      "å¹´": 492,
      "éľĢè¦ģ": 493,
      "in": 494,
      "æĸ°": 495,
      "å®¶": 496,
      "é«ĺ": 497,
      "çĶµ": 498,
      "æĢ§": 499,
      "åĬĽ": 500,
      "åĢ": 501,
      "æŃ¤": 502,
      "æĤ¨": 503,
      "åģ": 504,
      "è°": 505,
      "éĩı": 506,
      "çĲĨ": 507,
      "ä»¥ä¸ĭ": 508,
      "éĶ": 509,
      "åĮĸ": 510,
      "ä¹ĭ": 511,
      "è®¡": 512,
      "çŁ": 513,
      "åĲį": 514,
      "èĭ": 515,
      "ä¹Ł": 516,
      "è¿Ļä¸ª": 517,
      "å·¥": 518,
      "æĥħ": 519,
      "ä¸»": 520,
      "Ġt": 521,
      "è¶": 522,
      "æľº": 523,
      "è§£": 524,
      "éĤ": 525,
      "é¦": 526,
      "åĲİ": 527,
      "çĿ": 528,
      "å½±": 529,
      "åºĶ": 530,
      "åŃĹ": 531,
      "æīĢ": 532,
      "ç¬": 533,
      "åħ¥": 534,
      "ç¨": 535,
      "éĢļ": 536,
      "åħ¬": 537,
      "éĹ´": 538,
      "æĸĩæľ¬": 539,
      "æģ": 540,
      "éĹ®é¢ĺ": 541,
      "an": 542,
      "æ¡": 543,
      "ç¾İ": 544,
      "åĸ": 545,
      "èĢĮ": 546,
      "èĤ": 547,
      "åĲĪ": 548,
      "ç©": 549,
      "éĩį": 550,
      "éĩĮ": 551,
      "æ°Ķ": 552,
      "æł¹": 553,
      "er": 554,
      "00": 555,
      "çĽ¸": 556,
      "å¼ı": 557,
      "ç¤": 558,
      "çĤ¹": 559,
      "ç®Ĺ": 560,
      "åĽ½": 561,
      "çĿĢ": 562,
      "éķ": 563,
      "æĹ¥": 564,
      "æĦı": 565,
      "åĿ": 566,
      "ç»ı": 567,
      "è¿ĺ": 568,
      "èĢħ": 569,
      "ä¾Ľ": 570,
      "å¾Ī": 571,
      "å¿ĥ": 572,
      "æ®": 573,
      "çĲĥ": 574,
      "åĮħ": 575,
      "åı¥åŃĲ": 576,
      "é¡": 577,
      "æ°´": 578,
      "è¿°": 579,
      "æł¹æį®": 580,
      "æ¯Ķ": 581,
      "è·": 582,
      "ç½": 583,
      "ä¿Ŀ": 584,
      "éħ": 585,
      "çĥ": 586,
      "éĤ£": 587,
      "éĽ": 588,
      "äºĭ": 589,
      "æ¯ı": 590,
      "çī¹": 591,
      "è¯¥": 592,
      "å»": 593,
      "ä½¿çĶ¨": 594,
      "çķ": 595,
      "åįķ": 596,
      "æŁ": 597,
      "ç¡": 598,
      "ä¿¡": 599,
      "éĥ½": 600,
      "åĨĻ": 601,
      "ç¨ĭ": 602,
      "å½ĵ": 603,
      "èĲ": 604,
      "æĺ¯ä¸Ģ": 605,
      "æ·": 606,
      "æĥ³": 607,
      "å®ŀ": 608,
      "æıĲä¾Ľ": 609,
      "ç´": 610,
      "ŀĭ": 611,
      "è¢": 612,
      "on": 613,
      "èį": 614,
      "åħ·": 615,
      "å¢": 616,
      "Ġ=": 617,
      "åİ»": 618,
      "éģĵ": 619,
      "éķ¿": 620,
      "çŃĶ": 621,
      "ä»Ģ": 622,
      "ä¸İ": 623,
      "çĭ": 624,
      "è¿Ľè¡Į": 625,
      "ç¼": 626,
      "å¼Ģ": 627,
      "æ®µ": 628,
      "éĿŀ": 629,
      "æĬĢ": 630,
      "è®©": 631,
      "å»º": 632,
      "å¥½çļĦ": 633,
      "åķ": 634,
      "ä½Ĩ": 635,
      "è¯´": 636,
      "åħĥ": 637,
      "å¤ĸ": 638,
      "ï¼ī": 639,
      "ä»İ": 640,
      "éĥ": 641,
      "ä¸¤": 642,
      "æŃ£": 643,
      "åĽŀ": 644,
      "éļ": 645,
      "é£Ł": 646,
      "æ¡Ī": 647,
      "ç³»": 648,
      "èµ·": 649,
      "ç¿": 650,
      "ä»£": 651,
      "ï¼Ī": 652,
      "çĶŁæĪĲ": 653,
      "éĢĤ": 654,
      "ç»ĵ": 655,
      "æģ¯": 656,
      "åĪ¶": 657,
      "æľ¯": 658,
      "ä»Ģä¹Ī": 659,
      "çĪ": 660,
      "éĢī": 661,
      "å°ıæĺİ": 662,
      "ä¸ĢäºĽ": 663,
      "ç¡®": 664,
      "å°ĳ": 665,
      "çĽ®": 666,
      "åıĺ": 667,
      "20": 668,
      "åŀĭ": 669,
      "åĪĹ": 670,
      "æĹł": 671,
      "åĨħ": 672,
      "çľĭ": 673,
      "å¸Ĥ": 674,
      "æ»": 675,
      "åĸľ": 676,
      "å¦Ĥæŀľ": 677,
      "Ġ1": 678,
      "Ġa": 679,
      "çł": 680,
      "éĥ¨": 681,
      "é»": 682,
      "he": 683,
      "ä½į": 684,
      "åĽłæŃ¤": 685,
      "æ¬¢": 686,
      "re": 687,
      "è¢«": 688,
      "å¹³": 689,
      "åħ¨": 690,
      "ä½ķ": 691,
      "åıª": 692,
      "éŁ": 693,
      "éĿŀå¸¸": 694,
      "é£İ": 695,
      "èº": 696,
      "ç«ł": 697,
      "æĻº": 698,
      "è¯Ŀ": 699,
      "æ´»": 700,
      "åīį": 701,
      "å¸®": 702,
      "éĴ": 703,
      "ç»Ļå®ļ": 704,
      "èĪ": 705,
      "è´¨": 706,
      "ç¯": 707,
      "é¥": 708,
      "åıĸ": 709,
      "èģ": 710,
      "ä»¶": 711,
      "at": 712,
      "ou": 713,
      "æĸĩç«ł": 714,
      "åıĹ": 715,
      "äº§": 716,
      "ä¸ļ": 717,
      "èº«": 718,
      "ä¸ī": 719,
      "æīĭ": 720,
      "æł¼": 721,
      "å§": 722,
      "è®¡ç®Ĺ": 723,
      "å£": 724,
      "ä¹ł": 725,
      "en": 726,
      "çĻ": 727,
      "æĺŁ": 728,
      "å½¢": 729,
      "éª": 730,
      "è®¾": 731,
      "ä¸ŃçļĦ": 732,
      "çĶµå½±": 733,
      "åĪ«": 734,
      "ä¾ĭ": 735,
      "ãĢĭ": 736,
      "ãĢĬ": 737,
      "è¨": 738,
      "èĬ±": 739,
      "è¾ĵ": 740,
      "æıı": 741,
      "æ¶": 742,
      "or": 743,
      "å±ķ": 744,
      "é¸": 745,
      "çģ": 746,
      "åĬ¡": 747,
      "èı": 748,
      "æľŁ": 749,
      "æĻºèĥ½": 750,
      "ç®Ģ": 751,
      "åľº": 752,
      "æ±Ĥ": 753,
      "ç¥": 754,
      "ç§ĳ": 755,
      "åıĬ": 756,
      "å°±": 757,
      "åĻ": 758,
      "is": 759,
      "çĸ": 760,
      "æĭ¬": 761,
      "åĪ©": 762,
      "ä¿¡æģ¯": 763,
      "çº¢": 764,
      "ä¹Ĳ": 765,
      "æµ·": 766,
      "ç»Ħ": 767,
      "æ¼": 768,
      "èĭ±": 769,
      "æłĩ": 770,
      "Ġs": 771,
      "ä»·": 772,
      "æķ°æį®": 773,
      "è£": 774,
      "æĢ»": 775,
      "æľĪ": 776,
      "è±": 777,
      "é¦ĸ": 778,
      "åĻ¨": 779,
      "åĬ©": 780,
      "å®ĥä»¬": 781,
      "10": 782,
      "ç¿»": 783,
      "æĮģ": 784,
      "æİ¨": 785,
      "èĻ": 786,
      "å·±": 787,
      "è¨Ģ": 788,
      "éŁ³": 789,
      "èĥ": 790,
      "åħī": 791,
      "ç¯ĩ": 792,
      "ä»ĸä»¬": 793,
      "æĶ¾": 794,
      "åĪĽ": 795,
      "åı¯èĥ½": 796,
      "æııè¿°": 797,
      "èĩªå·±": 798,
      "è¿ĻäºĽ": 799,
      "çŁ¥": 800,
      "çĮ": 801,
      "åĸľæ¬¢": 802,
      "è¯ĳ": 803,
      "èĬĤ": 804,
      "ç¤º": 805,
      "ç²": 806,
      "å®¹": 807,
      "çĶ±": 808,
      "åı¸": 809,
      "æĸĻ": 810,
      "è®º": 811,
      "le": 812,
      "éĵ": 813,
      "æ¸¸": 814,
      "å¤Ħ": 815,
      "åİŁ": 816,
      "ä»»": 817,
      "æ¨": 818,
      "è¾¾": 819,
      "æ¬¡": 820,
      "è®®": 821,
      "åºı": 822,
      "èİ": 823,
      "éĢļè¿ĩ": 824,
      "åĮħæĭ¬": 825,
      "åıĭ": 826,
      "æ²¡": 827,
      "åĳ³": 828,
      "çİ¯": 829,
      "èĦ": 830,
      "ç¿»è¯ĳ": 831,
      "Ġd": 832,
      "æŃ¥": 833,
      "ä¸įåĲĮ": 834,
      "æĮĩ": 835,
      "æł·": 836,
      "æµģ": 837,
      "åı£": 838,
      "ä¸ĸ": 839,
      "è½¦": 840,
      "æī¾": 841,
      "åĢ¼": 842,
      "äº¤": 843,
      "ä¹ī": 844,
      "åŃ¦ä¹ł": 845,
      "ç»Ł": 846,
      "åĽłä¸º": 847,
      "çĪ±": 848,
      "è§Ĥ": 849,
      "åĨ³": 850,
      "æĻ¯": 851,
      "é©": 852,
      "åħ¬åı¸": 853,
      "ç³ĸ": 854,
      "es": 855,
      "ä¹¦": 856,
      "æľį": 857,
      "å¤ª": 858,
      "æ¸ħ": 859,
      "ar": 860,
      "ç©º": 861,
      "å¥¹": 862,
      "åĳĬ": 863,
      "èıľ": 864,
      "æ·±": 865,
      "è¿Ĳ": 866,
      "æĭ©": 867,
      "çķĮ": 868,
      "æĬĢæľ¯": 869,
      "éĢīæĭ©": 870,
      "Ġb": 871,
      "Ġ2": 872,
      "ï¼Ľ": 873,
      "ç¦": 874,
      "é¤": 875,
      "å¤Ł": 876,
      "æĹ¶éĹ´": 877,
      "am": 878,
      "Ġc": 879,
      "åħĭ": 880,
      "åĩł": 881,
      "äººå·¥": 882,
      "ä¸¤ä¸ª": 883,
      "Ġ-": 884,
      "æĺ¯ä¸Ģä¸ª": 885,
      "é¤Ĳ": 886,
      "æĪ·": 887,
      "åķĨ": 888,
      "åŁİ": 889,
      "éĺ³": 890,
      "åħ±": 891,
      "æķ´": 892,
      "å®ī": 893,
      "èĮ": 894,
      "ç¬¬": 895,
      "åĵį": 896,
      "åĲĹ": 897,
      "æ³¨": 898,
      "å¸¦": 899,
      "çħ": 900,
      "äººå·¥æĻºèĥ½": 901,
      "å¦Ĥä½ķ": 902,
      "æķĪ": 903,
      "æ²¡æľī": 904,
      "æ¨¡": 905,
      "al": 906,
      "ä»½": 907,
      "åĵª": 908,
      "åģļ": 909,
      "å¢ĥ": 910,
      "åģ¥": 911,
      "åħĪ": 912,
      "å¼º": 913,
      "æ¸©": 914,
      "åĲĳ": 915,
      "å·²": 916,
      "è°ĥ": 917,
      "è¯Ĺ": 918,
      "åİĨ": 919,
      "èĲ½": 920,
      "æº": 921,
      "åĽŀçŃĶ": 922,
      "Ġf": 923,
      "èĩªçĦ¶": 924,
      "ic": 925,
      "æĶ¹": 926,
      "Ġp": 927,
      "åĳĺ": 928,
      "çĹ": 929,
      "ä¼ł": 930,
      "æ£": 931,
      "åŁº": 932,
      "æĳ": 933,
      "é¢Ĩ": 934,
      "éĩįè¦ģ": 935,
      "æĶ¯": 936,
      "it": 937,
      "è¯Ńè¨Ģ": 938,
      "éĢł": 939,
      "æķħ": 940,
      "ç¼ĸ": 941,
      "éĩĳ": 942,
      "æľª": 943,
      "ä¹°": 944,
      "åĮº": 945,
      "éĶ®": 946,
      "è¯ķ": 947,
      "æŀģ": 948,
      "æİ¥": 949,
      "è¯Ħ": 950,
      "èĳ": 951,
      "çº¦": 952,
      "åĪĨç±»": 953,
      "Ġm": 954,
      "ç´ł": 955,
      "é¡¹": 956,
      "æİĴ": 957,
      "çİ°åľ¨": 958,
      "åħ³äºİ": 959,
      "ï¼ģ": 960,
      "``": 961,
      "çŁŃ": 962,
      "éĤ£ä¹Ī": 963,
      "æŃĮ": 964,
      "æļ": 965,
      "å¿«": 966,
      "ä»Ĭ": 967,
      "ç±³": 968,
      "ing": 969,
      "Ġ3": 970,
      "å¥³": 971,
      "å®Į": 972,
      "æľĭ": 973,
      "æĿ¡": 974,
      "å¸®åĬ©": 975,
      "åĲ«": 976,
      "çĬ": 977,
      "åħ¶ä»ĸ": 978,
      "åĪĻ": 979,
      "æĸŃ": 980,
      "Ġw": 981,
      "çı": 982,
      "æľĭåıĭ": 983,
      "ä¸»é¢ĺ": 984,
      "æ¯ıä¸ª": 985,
      "è¿ĳ": 986,
      "åį³": 987,
      "å½±åĵį": 988,
      "å¯¼": 989,
      "å§ĭ": 990,
      "å±±": 991,
      "Ġthe": 992,
      "è¥": 993,
      "æĢĿ": 994,
      "åįķè¯į": 995,
      "è¯Ĩ": 996,
      "é¢Ħ": 997,
      "å¤ĩ": 998,
      "åĲĦ": 999,
      "åĩĨ": 1000,
      "ä¾ĭå¦Ĥ": 1001,
      "è½»": 1002,
      "ä¸ĸçķĮ": 1003,
      "ç½ĳ": 1004,
      "æĹħ": 1005,
      "åħ³éĶ®": 1006,
      "è¥¿": 1007,
      "åĶ": 1008,
      "ç»Ĩ": 1009,
      "èĥ½å¤Ł": 1010,
      "åºĶçĶ¨": 1011,
      "ä¸Ķ": 1012,
      "ç§¯": 1013,
      "å¼ķ": 1014,
      "åĩı": 1015,
      "çīĩ": 1016,
      "å»ºè®®": 1017,
      "åŁŁ": 1018,
      "åĲ¦": 1019,
      "åĬ¨çī©": 1020,
      "è±¡": 1021,
      "¹æŀľ": 1022,
      "èĭ¹æŀľ": 1023,
      "åĪ°äºĨ": 1024,
      "èĢĥ": 1025,
      "ä¼ĺ": 1026,
      "æĲ": 1027,
      "åĲĮæĹ¶": 1028,
      "æ»¡": 1029,
      "çŃĶæ¡Ī": 1030,
      "Â·": 1031,
      "çº¿": 1032,
      "çĶ·": 1033,
      "ä¸Ģä¸ĭ": 1034,
      "çĻ½": 1035,
      "æīĢä»¥": 1036,
      "éħį": 1037,
      "æĸ¯": 1038,
      "åŃĺ": 1039,
      "èĽ": 1040,
      "åıĳå±ķ": 1041,
      "åħ¶ä¸Ń": 1042,
      "åĲĥ": 1043,
      "ç¤¾": 1044,
      "è§Ĵ": 1045,
      "æ¬¾": 1046,
      "æµĭ": 1047,
      "é¦Ļ": 1048,
      "å¤´": 1049,
      "çĭĹ": 1050,
      "è¯»": 1051,
      "æĬĬ": 1052,
      "åĬŁ": 1053,
      "æĽ´åĬł": 1054,
      "ç»Ļå®ļçļĦ": 1055,
      "æīĵ": 1056,
      "å¤ļå°ĳ": 1057,
      "åºĶè¯¥": 1058,
      "å¢ŀ": 1059,
      "äººä»¬": 1060,
      "å®¢": 1061,
      "çĽ´": 1062,
      "è·¯": 1063,
      "åıį": 1064,
      "è§Ĩ": 1065,
      "éªĮ": 1066,
      "ç¥ŀ": 1067,
      "åĳ¨": 1068,
      "æķħäºĭ": 1069,
      "äººç±»": 1070,
      "æķ°åŃĹ": 1071,
      "Ġl": 1072,
      "el": 1073,
      "æĸ¹å¼ı": 1074,
      "çĮ«": 1075,
      "åº·": 1076,
      "æĸ¹æ³ķ": 1077,
      "åĨį": 1078,
      "çĶŁæ´»": 1079,
      "å¤į": 1080,
      "åĮ»": 1081,
      "çĥŃ": 1082,
      "åŁİå¸Ĥ": 1083,
      "å²": 1084,
      "ç©¶": 1085,
      "æ¤": 1086,
      "èįĲ": 1087,
      "ç»ĻæĪĳ": 1088,
      "è®¤": 1089,
      "è½¬": 1090,
      "Ġ\"": 1091,
      "å¹¿": 1092,
      "éĶĻ": 1093,
      "ç»Ļåĩº": 1094,
      "èĩ³": 1095,
      "ä¸Ģç¯ĩ": 1096,
      "è§ī": 1097,
      "åı·": 1098,
      "éĻ¤": 1099,
      "Ġn": 1100,
      "æľĽ": 1101,
      "æĿĲ": 1102,
      "Ġ5": 1103,
      "è®¸": 1104,
      "æºĲ": 1105,
      "è¶³": 1106,
      "äºĨä¸Ģ": 1107,
      "ç§°": 1108,
      "ä¹ĭä¸Ģ": 1109,
      "Ġ|": 1110,
      "è¾ĵåħ¥": 1111,
      "åģ¥åº·": 1112,
      "ä¹ĭéĹ´": 1113,
      "åŃ£": 1114,
      "æİ¨èįĲ": 1115,
      "om": 1116,
      "è¾ĥ": 1117,
      "çļĦæĥ": 1118,
      "æĢģ": 1119,
      "æĪĺ": 1120,
      "èĤī": 1121,
      "è®¾è®¡": 1122,
      "åı²": 1123,
      "ä»¥åıĬ": 1124,
      "çİĩ": 1125,
      "è´Ń": 1126,
      "éĢŁ": 1127,
      "è°¢": 1128,
      "çİ¯å¢ĥ": 1129,
      "Ķç©¶": 1130,
      "Ġ+": 1131,
      "çłģ": 1132,
      "Ġto": 1133,
      "åĿĩ": 1134,
      "çľŁ": 1135,
      "åĳ½": 1136,
      "æ¢": 1137,
      "åĨµ": 1138,
      "åĢĻ": 1139,
      "ç«ĭ": 1140,
      "æ¼Ķ": 1141,
      "å¡": 1142,
      "å·¥ä½ľ": 1143,
      "æĪĸèĢħ": 1144,
      "è¶Ĭ": 1145,
      "äºĮ": 1146,
      "Ġo": 1147,
      "ä¸ŃåĽ½": 1148,
      "Ġin": 1149,
      "æĬ¤": 1150,
      "æŁ¥": 1151,
      "å¤©æ°Ķ": 1152,
      "and": 1153,
      "å¼ł": 1154,
      "å¾ĹåĪ°": 1155,
      "é¢ĨåŁŁ": 1156,
      "è£ħ": 1157,
      "è¯ī": 1158,
      "èħ": 1159,
      "æŀĲ": 1160,
      "as": 1161,
      "æĺ¯ä¸Ģç§į": 1162,
      "ç®¡": 1163,
      "èĩ´": 1164,
      "åĽ¾": 1165,
      "éĩĬ": 1166,
      "åĥ": 1167,
      "é»ĳ": 1168,
      "ä¸»è¦ģ": 1169,
      "ç³ĸæŀľ": 1170,
      "èĽĭ": 1171,
      "æĶ¶": 1172,
      "ä¸½": 1173,
      "æĬ¥": 1174,
      "åı¤": 1175,
      "ï¼ļâĢľ": 1176,
      "äº§åĵģ": 1177,
      "æŀĦ": 1178,
      "åĨħå®¹": 1179,
      "ç¬¦": 1180,
      "åĽŃ": 1181,
      "\":": 1182,
      "éļı": 1183,
      "å¤ı": 1184,
      "éŁ³ä¹Ĳ": 1185,
      "æıĲé«ĺ": 1186,
      "ä½Ĩæĺ¯": 1187,
      "é²": 1188,
      "çļĦäºº": 1189,
      "çĦ¶åĲİ": 1190,
      "è¾¹": 1191,
      "th": 1192,
      "åıĤ": 1193,
      "åĭ": 1194,
      "æĺĵ": 1195,
      "ç»Ń": 1196,
      "åĪĨæŀĲ": 1197,
      "ç½®": 1198,
      "çīĽ": 1199,
      "åı¥è¯Ŀ": 1200,
      "æħ": 1201,
      "ç¿»è¯ĳæĪĲ": 1202,
      "å¸ĥ": 1203,
      "æķĻ": 1204,
      "ä¾¿": 1205,
      "çĭ¬": 1206,
      "è§ģ": 1207,
      "æĸ¹éĿ¢": 1208,
      "çħ§": 1209,
      "ãĢĤâĢĿ": 1210,
      "äº«": 1211,
      "æľºåĻ¨": 1212,
      "ç»ĵæŀľ": 1213,
      "è¾ĵåĩº": 1214,
      "ç¢": 1215,
      "è¶£": 1216,
      "é¸¡": 1217,
      "ed": 1218,
      "çļĦæĦ": 1219,
      "12": 1220,
      "um": 1221,
      "èµĦ": 1222,
      "åĳĬè¯ī": 1223,
      "æľªæĿ¥": 1224,
      "èĢģ": 1225,
      "ç²¾": 1226,
      "èİ·": 1227,
      "ç¬Ķ": 1228,
      "åħ·æľī": 1229,
      "æİ¢": 1230,
      "éĢļå¸¸": 1231,
      "åħħ": 1232,
      "åĥı": 1233,
      "åħ·ä½ĵ": 1234,
      "éĺŁ": 1235,
      "æĸĩåĮĸ": 1236,
      "çļĦæĥħ": 1237,
      "éĹ¨": 1238,
      "ç³»ç»Ł": 1239,
      "ç¦»": 1240,
      "ä»Ĭå¤©": 1241,
      "å°½": 1242,
      "å·²ç»ı": 1243,
      "å¤ĦçĲĨ": 1244,
      "è§Ħ": 1245,
      "å¤±": 1246,
      "ä¸Ģç§į": 1247,
      "åįİ": 1248,
      "åĲ¬": 1249,
      "æľįåĬ¡": 1250,
      "ç´¢": 1251,
      "è¡¨è¾¾": 1252,
      "éļ¾": 1253,
      "èģĶ": 1254,
      "åįĩ": 1255,
      "è¡£": 1256,
      "éĢĤåĲĪ": 1257,
      "çĬ¶": 1258,
      "é¥®": 1259,
      "èįī": 1260,
      "çĸĹ": 1261,
      "ro": 1262,
      "è®°": 1263,
      "ä¸Ńæĸĩ": 1264,
      "ä¸Ģæ®µ": 1265,
      "æĮī": 1266,
      "æīĢæľī": 1267,
      "è®¸å¤ļ": 1268,
      "éĽĨ": 1269,
      "é»Ħ": 1270,
      "å£°": 1271,
      "å¼Ģå§ĭ": 1272,
      "çĹħ": 1273,
      "äºĶ": 1274,
      "è§£åĨ³": 1275,
      "èµĽ": 1276,
      "ä»ĭ": 1277,
      "èĭ±æĸĩ": 1278,
      "èµ°": 1279,
      "æ©": 1280,
      "æķ°éĩı": 1281,
      "Ġh": 1282,
      "å°Ķ": 1283,
      "éĩĩ": 1284,
      "å¥¶": 1285,
      "èĩªå·±çļĦ": 1286,
      "æį¢": 1287,
      "åĲ¸": 1288,
      "Ġ4": 1289,
      "çłĶç©¶": 1290,
      "ch": 1291,
      "éĻ©": 1292,
      "é©¬": 1293,
      "æĿ¾": 1294,
      "æĪĲä¸º": 1295,
      "æŃ¤å¤ĸ": 1296,
      "åī©": 1297,
      "æ¨¡åŀĭ": 1298,
      "nt": 1299,
      "æ¦": 1300,
      "è§£éĩĬ": 1301,
      "ä¿®": 1302,
      "åĮĹ": 1303,
      "æĽ²": 1304,
      "ä½łçļĦ": 1305,
      "åĽĽ": 1306,
      "å£«": 1307,
      "å¤ªéĺ³": 1308,
      "çļĦæĢ": 1309,
      "è¿ĲåĬ¨": 1310,
      "æĺ¯åĲ¦": 1311,
      "æĸĩæ¡Ī": 1312,
      "ä½İ": 1313,
      "èĳĹ": 1314,
      "åĳ¢": 1315,
      "åıĳçİ°": 1316,
      "çĽ¸åħ³": 1317,
      "è¡¨ç¤º": 1318,
      "ä¸Ģèµ·": 1319,
      "æĭī": 1320,
      "15": 1321,
      ",\"": 1322,
      "çĨ": 1323,
      "æĻļ": 1324,
      "æĪĳæĥ³": 1325,
      "æŀĹ": 1326,
      "åİĨåı²": 1327,
      "çļĦæ°": 1328,
      "éº": 1329,
      "æĽ´å¤ļ": 1330,
      "å½ĵçĦ¶": 1331,
      "è®²": 1332,
      "çĶ»": 1333,
      "èĵ": 1334,
      "åĦ": 1335,
      "çĶŁæĪĲä¸Ģä¸ª": 1336,
      "ç§ĭ": 1337,
      "é±": 1338,
      "æ²¹": 1339,
      "éĹ»": 1340,
      "æķ°åŃ¦": 1341,
      "åħ³éĶ®è¯į": 1342,
      "å°ıè¯´": 1343,
      "é±¼": 1344,
      "æ´»åĬ¨": 1345,
      "èīº": 1346,
      "ä¼¼": 1347,
      "æĪı": 1348,
      "è´¹": 1349,
      "åİħ": 1350,
      "åĽ´": 1351,
      "å¯Ĩ": 1352,
      "æ¯į": 1353,
      "åĪĴ": 1354,
      "id": 1355,
      "ä»·æł¼": 1356,
      "ãĢĤ\\": 1357,
      "æĪ¿": 1358,
      "åŃ©": 1359,
      "è¿ľ": 1360,
      "ä»ĸçļĦ": 1361,
      "çģ«": 1362,
      "æĪĳä»¬åı¯ä»¥": 1363,
      "ç»Ī": 1364,
      "å¯¹äºİ": 1365,
      "æīį": 1366,
      "Ġ(": 1367,
      "æĴ": 1368,
      "ç»´": 1369,
      "ll": 1370,
      "æĹłæ³ķ": 1371,
      "çİ©": 1372,
      "çª": 1373,
      "ç»ĥ": 1374,
      "éĽ¨": 1375,
      "çĶ¨æĪ·": 1376,
      "é¸Ł": 1377,
      "æĺ¾": 1378,
      "ĠÃ": 1379,
      "éĶĢ": 1380,
      "è¦ģæ±Ĥ": 1381,
      "åĪ¶ä½ľ": 1382,
      "åĮħåĲ«": 1383,
      "ä¿ĿæĮģ": 1384,
      "ç§ĳåŃ¦": 1385,
      "åľ°çĲĥ": 1386,
      "é¢ĺçĽ®": 1387,
      "åĴĸ": 1388,
      "çļĦéĹ®é¢ĺ": 1389,
      "å¨": 1390,
      "çĥ¤": 1391,
      "åĪĹè¡¨": 1392,
      "é¦ĸåħĪ": 1393,
      "å·§": 1394,
      "å°ıçº¢": 1395,
      "ä¸ĭéĿ¢": 1396,
      "æĥħæĦŁ": 1397,
      "åıĺåĮĸ": 1398,
      "é¾": 1399,
      "å¾·": 1400,
      "éħĴ": 1401,
      "100": 1402,
      "é£ŀ": 1403,
      "èĻĳ": 1404,
      "åĳĬè¯īæĪĳ": 1405,
      "æ¶Ī": 1406,
      "å®īåħ¨": 1407,
      "é¢Ĺ": 1408,
      "äºĴ": 1409,
      "å¾Īå¤ļ": 1410,
      "st": 1411,
      "çŁ¥éģĵ": 1412,
      "19": 1413,
      "å¤§çļĦ": 1414,
      "ax": 1415,
      "å±ŀ": 1416,
      "æıĲåıĸ": 1417,
      "é¢ľ": 1418,
      "è¶ħ": 1419,
      "æłĳ": 1420,
      "çļĦæĺ¯": 1421,
      "ä¸ªäºº": 1422,
      "è¯·éĹ®": 1423,
      "ä»»åĬ¡": 1424,
      "åĦ¿": 1425,
      "åı¦": 1426,
      "å®ŀçİ°": 1427,
      "çĵ": 1428,
      "å¸Į": 1429,
      "æĸ°çļĦ": 1430,
      "åķ¡": 1431,
      "åħ¨çĲĥ": 1432,
      "åĴĸåķ¡": 1433,
      "æľĢåĲİ": 1434,
      "åħ´": 1435,
      "ç®Ģåįķ": 1436,
      "im": 1437,
      "å¥ĩ": 1438,
      "åįģ": 1439,
      "æĺ¥": 1440,
      "è¯¯": 1441,
      "ç©¿": 1442,
      "åĬłåħ¥": 1443,
      "å¾®": 1444,
      "çīĮ": 1445,
      "åħ³ç³»": 1446,
      "åķĨåĵģ": 1447,
      "è¿Ļç§į": 1448,
      "å¹²": 1449,
      "åĿĹ": 1450,
      "ç¾İåĽ½": 1451,
      "æĪĳçļĦ": 1452,
      "ä»¤": 1453,
      "è¿ĩç¨ĭ": 1454,
      "å¤ľ": 1455,
      "å¾ĭ": 1456,
      "ç§ĳæĬĢ": 1457,
      "202": 1458,
      "åł": 1459,
      "åĪĩ": 1460,
      "æĵ": 1461,
      "å¯Į": 1462,
      "ount": 1463,
      "åįĹ": 1464,
      "æĿ¯": 1465,
      "ge": 1466,
      "åı¶": 1467,
      "èº«ä½ĵ": 1468,
      "ç»¿": 1469,
      "Ġy": 1470,
      "ç»į": 1471,
      "è¯ģ": 1472,
      "äº¬": 1473,
      "å°Ŀ": 1474,
      "è¿ĺæľī": 1475,
      "ion": 1476,
      "æŁĲ": 1477,
      "ä»ĭç»į": 1478,
      "èĲ¥": 1479,
      "èĵĿ": 1480,
      "```": 1481,
      "å¿ħ": 1482,
      "éĻħ": 1483,
      "éĴ±": 1484,
      "ent": 1485,
      "ä½ľä¸º": 1486,
      "åħį": 1487,
      "Ġand": 1488,
      "æĢİ": 1489,
      "æ¯Ķå¦Ĥ": 1490,
      "æ³¨æĦı": 1491,
      "éĴŁ": 1492,
      "å·´": 1493,
      "çĶ¨äºİ": 1494,
      "æķ£": 1495,
      "ä¸ľ": 1496,
      "ä¸įåĲĮçļĦ": 1497,
      "éĺ²": 1498,
      "å¸®æĪĳ": 1499,
      "æ²Ļ": 1500,
      "åºĹ": 1501,
      "äºļ": 1502,
      "éĿĻ": 1503,
      "é¤Ĳåİħ": 1504,
      "èľ": 1505,
      "à¤": 1506,
      "èĥ½åĬĽ": 1507,
      "æĹ©": 1508,
      "æī¾åĪ°": 1509,
      "äºĨè§£": 1510,
      "âĢĿãĢĤ": 1511,
      "çº§": 1512,
      "éĻĲ": 1513,
      "èī²çļĦ": 1514,
      "ç¨ĭåºı": 1515,
      "å®Ŀ": 1516,
      "åħ¸": 1517,
      "æ¹": 1518,
      "ç±»åŀĭ": 1519,
      "è®¡ç®Ĺæľº": 1520,
      "æļĸ": 1521,
      "æĦŁåĪ°": 1522,
      "åı°": 1523,
      "åĲĦç§į": 1524,
      "äººçļĦ": 1525,
      "ä¸ĩ": 1526,
      "å¯»": 1527,
      "èĪĴ": 1528,
      "Ġis": 1529,
      "å¸Ī": 1530,
      "æ½": 1531,
      "ä¿ĿæĬ¤": 1532,
      "å¹³åĿĩ": 1533,
      "ä¸Ģä»½": 1534,
      "âĢĿï¼Į": 1535,
      "è¾ĳ": 1536,
      "ac": 1537,
      "ä»£çłģ": 1538,
      "å°Ĩä»¥ä¸ĭ": 1539,
      "åıĪ": 1540,
      "ç¤¾ä¼ļ": 1541,
      "ä¸ĵ": 1542,
      "å¸¦æĿ¥": 1543,
      "ĺè¦ģ": 1544,
      "çļĦæĬ": 1545,
      "ä½łåı¯ä»¥": 1546,
      "æĺ¯ä»Ģä¹Ī": 1547,
      "__": 1548,
      "æĸ°éĹ»": 1549,
      "ä¸īä¸ª": 1550,
      "Ġof": 1551,
      "ver": 1552,
      "amount": 1553,
      "éĥ½æĺ¯": 1554,
      "åĲįç§°": 1555,
      "çļĦä¸Ģ": 1556,
      "è´¨éĩı": 1557,
      "çĲĨè§£": 1558,
      "ãĢĤ\"": 1559,
      "å¿µ": 1560,
      "yth": 1561,
      "å¾ģ": 1562,
      "åĩłä¸ª": 1563,
      "å°±æĺ¯": 1564,
      "ä¸įæĺ¯": 1565,
      "èĤ²": 1566,
      "å¹¶ä¸Ķ": 1567,
      "å¸ĮæľĽ": 1568,
      "æĪĳä»¬çļĦ": 1569,
      "è½¯": 1570,
      "æ²»": 1571,
      "è®¤ä¸º": 1572,
      "et": 1573,
      "30": 1574,
      "èĴ": 1575,
      "æĭ¥": 1576,
      "äºĳ": 1577,
      "ç«Ļ": 1578,
      "åĩıå°ĳ": 1579,
      "æĤ¨çļĦ": 1580,
      "çŃīçŃī": 1581,
      "æ°ĳ": 1582,
      "å®ĥçļĦ": 1583,
      "æĹ¥æľŁ": 1584,
      "çİĭ": 1585,
      "æŃ£ç¡®": 1586,
      "çŃĸ": 1587,
      "å®ĮæĪĲ": 1588,
      "çļĦç¾": 1589,
      "æĥħåĨµ": 1590,
      "ot": 1591,
      "æİ§": 1592,
      "åĶ®": 1593,
      "ython": 1594,
      "æ¦Ĥ": 1595,
      "åħ»": 1596,
      "ant": 1597,
      "è¿ŀ": 1598,
      "çļĦåľ°": 1599,
      "æłĩé¢ĺ": 1600,
      "æľĢè¿ĳ": 1601,
      "æ¿": 1602,
      "é¢ľèī²": 1603,
      "é£Łçī©": 1604,
      "å®¤": 1605,
      "æ¤į": 1606,
      "çļĦæł": 1607,
      "è¿Ļæł·": 1608,
      "éŃ": 1609,
      "æĸ½": 1610,
      "è´Ńä¹°": 1611,
      "ä»ħ": 1612,
      "åĨ°": 1613,
      "åį¡": 1614,
      "å¯¼èĩ´": 1615,
      "ä»»ä½ķ": 1616,
      "åŃĺåľ¨": 1617,
      "éĻį": 1618,
      "Ġ6": 1619,
      "ĠS": 1620,
      "Ġ8": 1621,
      "å½©": 1622,
      "é²ľ": 1623,
      "ve": 1624,
      "å±Ĥ": 1625,
      "çĶŁåĳ½": 1626,
      "æ¸¸æĪı": 1627,
      "éĶĻè¯¯": 1628,
      "çļ®": 1629,
      "è´Ł": 1630,
      "åĵªäºĽ": 1631,
      "åĩºçİ°": 1632,
      "éĨ": 1633,
      "æŃ£åľ¨": 1634,
      "é¼": 1635,
      "æĿİ": 1636,
      "èµ·æĿ¥": 1637,
      "æľ¨": 1638,
      "åĬ¿": 1639,
      "å¾Ģ": 1640,
      "åİĭ": 1641,
      "èĢĥèĻĳ": 1642,
      "un": 1643,
      "50": 1644,
      "åĲ§": 1645,
      "åī©ä¸ĭ": 1646,
      "åī§": 1647,
      "ĠC": 1648,
      "åŃ¦çĶŁ": 1649,
      "ĠI": 1650,
      "å¦Ĥæŀľä½ł": 1651,
      "çļĦç¾İ": 1652,
      "èİ·å¾Ĺ": 1653,
      "ç®Ĺæ³ķ": 1654,
      "ä¹ĭéĹ´çļĦ": 1655,
      "ç¡®å®ļ": 1656,
      "ä¸įæĸŃ": 1657,
      "ç§¯æŀģ": 1658,
      "åĽ¢": 1659,
      "å¢ŀåĬł": 1660,
      "è¿Ļæ®µ": 1661,
      "çļĦæī": 1662,
      "à¸": 1663,
      "000": 1664,
      "ä¸įèĥ½": 1665,
      "äºĨä¸Ģä¸ª": 1666,
      "ä¸ĬçļĦ": 1667,
      "ad": 1668,
      "ate": 1669,
      "æ¯Ķè¾ĥ": 1670,
      "æĤ¨åı¯ä»¥": 1671,
      "çıŃ": 1672,
      "åĬŁèĥ½": 1673,
      "æ³¢": 1674,
      "\":\"": 1675,
      "pp": 1676,
      "çĳ": 1677,
      "è®¨": 1678,
      "å·®": 1679,
      "æ®µèĲ½": 1680,
      "åĪ»": 1681,
      "åģĩ": 1682,
      "éĿĴ": 1683,
      "å½Ĵ": 1684,
      "åĪĨéĴŁ": 1685,
      "Ġg": 1686,
      "è¿Ļåı¥è¯Ŀ": 1687,
      "è¯ĹæŃĮ": 1688,
      "é£İæł¼": 1689,
      "æ¿Ģ": 1690,
      "ĠA": 1691,
      "èŀ": 1692,
      "æĸĩæľ¬ä¸Ń": 1693,
      "æĶ¿": 1694,
      "æĹħæ¸¸": 1695,
      "è¡Įä¸º": 1696,
      "ay": 1697,
      "åºŃ": 1698,
      "18": 1699,
      "Ġe": 1700,
      "Ġre": 1701,
      "åĸĦ": 1702,
      "çļĦæŃ": 1703,
      "ç»ľ": 1704,
      "çļĦä¿¡æģ¯": 1705,
      "äº§çĶŁ": 1706,
      "ç²ī": 1707,
      "è·ĳ": 1708,
      "ä¸Ģé¦ĸ": 1709,
      "æĢİä¹Ī": 1710,
      "æĿĲæĸĻ": 1711,
      "æĽ´å¥½": 1712,
      "ä¸¾": 1713,
      "é¦Ĩ": 1714,
      "è¿Ļç¯ĩ": 1715,
      "--": 1716,
      "çŁ³": 1717,
      "æĹħè¡Į": 1718,
      "éĥ¨åĪĨ": 1719,
      "è¿Ļæĺ¯": 1720,
      "æ´ĭ": 1721,
      "èīºæľ¯": 1722,
      "æ¥": 1723,
      "äº®": 1724,
      "éĵħ": 1725,
      "ut": 1726,
      "åĪ¤": 1727,
      "æ´ģ": 1728,
      "è¯¦": 1729,
      "èĪĴéĢĤ": 1730,
      "å°Ŀè¯ķ": 1731,
      "çļĦå½±åĵį": 1732,
      "ä½ľçĶ¨": 1733,
      "è¿ĺæĺ¯": 1734,
      "æĮīçħ§": 1735,
      "ç¥¨": 1736,
      "ä¹Łåı¯ä»¥": 1737,
      "åĵģçīĮ": 1738,
      "æ¼«": 1739,
      "çļĦæĦı": 1740,
      "éģ¿": 1741,
      "å°Ĩåħ¶": 1742,
      "è®¡åĪĴ": 1743,
      "è¯ĨåĪ«": 1744,
      "æ³Ľ": 1745,
      "éĵħç¬Ķ": 1746,
      "æĪĲåĬŁ": 1747,
      "ä¼Ĺ": 1748,
      "éľĢæ±Ĥ": 1749,
      "æĭ¥æľī": 1750,
      "ç¼º": 1751,
      "å°¼": 1752,
      "ä¸ªèĭ¹æŀľ": 1753,
      "ç¦ı": 1754,
      "éĺħ": 1755,
      "lo": 1756,
      "ä¹Łæĺ¯": 1757,
      "æľºåĻ¨åŃ¦ä¹ł": 1758,
      "è¡¨çİ°": 1759,
      "èĶ": 1760,
      "æľīè¶£": 1761,
      "åıĳçĶŁ": 1762,
      "è¿½": 1763,
      "é¡º": 1764,
      "ç½Ĺ": 1765,
      "åĮ»çĸĹ": 1766,
      "åĤ": 1767,
      "ä¹ĺ": 1768,
      "å¸Ĥåľº": 1769,
      "æľĢç»Ī": 1770,
      "æĳĺè¦ģ": 1771,
      "æĦŁåıĹ": 1772,
      "çĽ®æłĩ": 1773,
      "åľ¨è¿Ļä¸ª": 1774,
      "Ġth": 1775,
      "éĺ³åħī": 1776,
      "ĠĠ": 1777,
      "ä¸ºæĤ¨": 1778,
      "ç®¡çĲĨ": 1779,
      "éĢģ": 1780,
      "The": 1781,
      "åĪ©çĶ¨": 1782,
      "çĶ±äºİ": 1783,
      "æĪĳåı¯ä»¥": 1784,
      "ç¡®ä¿Ŀ": 1785,
      "å³": 1786,
      "ä½ľèĢħ": 1787,
      "æµª": 1788,
      "æ©Ļ": 1789,
      "è®Ń": 1790,
      "çĶŁçī©": 1791,
      "ä½ľåĵģ": 1792,
      "äº«åıĹ": 1793,
      "ç¼ĸåĨĻ": 1794,
      "ä½ĵéªĮ": 1795,
      "ç½ĳç»ľ": 1796,
      "å²ģ": 1797,
      "æ¯ĶèµĽ": 1798,
      "è¯¦ç»Ĩ": 1799,
      "åŃĹæ¯į": 1800,
      "åı¯èĥ½ä¼ļ": 1801,
      "ĠO": 1802,
      "qu": 1803,
      "ur": 1804,
      "se": 1805,
      "èĮĥ": 1806,
      "çļĦæµ": 1807,
      "Ġ7": 1808,
      "æµİ": 1809,
      "åħ¬åĽŃ": 1810,
      "æ»©": 1811,
      "äºī": 1812,
      "å¾ħ": 1813,
      "ç¾İä¸½": 1814,
      "èĭ±è¯Ń": 1815,
      "æľīåħ³": 1816,
      "èĳĹåĲį": 1817,
      "åĩ½": 1818,
      "åº§": 1819,
      "çļĦåı¥åŃĲ": 1820,
      "åħĥç´ł": 1821,
      "å®¶åºŃ": 1822,
      "çĻ¾": 1823,
      "int": 1824,
      "AI": 1825,
      "åį°": 1826,
      "èĥĮ": 1827,
      "éŀĭ": 1828,
      "çĶµåŃĲ": 1829,
      "ç»ĩ": 1830,
      "å±ħ": 1831,
      "èŀį": 1832,
      "ä½įç½®": 1833,
      "å®³": 1834,
      "å¹¿æ³Ľ": 1835,
      "æ°´æŀľ": 1836,
      "çļĦæĻ": 1837,
      "å°ıæĺİæľī": 1838,
      "åľŁ": 1839,
      "è¿İ": 1840,
      "åĮĹäº¬": 1841,
      "èĦĳ": 1842,
      "åĩĨå¤ĩ": 1843,
      "åħħæ»¡": 1844,
      "äºĭä»¶": 1845,
      "è¯·ä½ł": 1846,
      "èģĮ": 1847,
      "æĲŃ": 1848,
      "åºķ": 1849,
      "æ£Ģ": 1850,
      "no": 1851,
      "ç»ĵæŀĦ": 1852,
      "æīįèĥ½": 1853,
      "æł¹æį®ç»Ļå®ļçļĦ": 1854,
      "ãģ": 1855,
      "å¦ĤæŀľæĤ¨": 1856,
      "éĺħè¯»": 1857,
      "åŀ": 1858,
      "ãĢĤ-": 1859,
      "èĪŀ": 1860,
      "äº²": 1861,
      "oo": 1862,
      "ä»¥ä¸ĭæĺ¯ä¸Ģ": 1863,
      "çīĪ": 1864,
      "Python": 1865,
      "çī¹å¾ģ": 1866,
      "åĩ½æķ°": 1867,
      "æĩ": 1868,
      "ĠB": 1869,
      "çļĦæ¸": 1870,
      "æ±½": 1871,
      "çķĻ": 1872,
      "ä½Ļ": 1873,
      "ä¸Ģåıª": 1874,
      "ĳæĪĺ": 1875,
      "è¯Ħè®º": 1876,
      "ï¼ļ-": 1877,
      "ä¸Ģç»Ħ": 1878,
      "å¼Ĥ": 1879,
      "åľĨ": 1880,
      "æĿĤ": 1881,
      "ç§ĺ": 1882,
      "ice": 1883,
      "Ġyou": 1884,
      "èĩªåĬ¨": 1885,
      "è±Ĩ": 1886,
      "èī¯": 1887,
      "å°ļ": 1888,
      "éħ±": 1889,
      "éª¤": 1890,
      "ä»¥ä¸ĭæĺ¯": 1891,
      "ç»ıæµİ": 1892,
      "å·ŀ": 1893,
      "åĲįåŃĹ": 1894,
      "çļĦæİ": 1895,
      "çİ°ä»£": 1896,
      "ä½ı": 1897,
      "åįĬ": 1898,
      "Ġ10": 1899,
      "æĹ¶åĢĻ": 1900,
      "èĮ¶": 1901,
      "çļĦæ¯": 1902,
      "éĺ¿": 1903,
      "èĲ¨": 1904,
      "çģµ": 1905,
      "è¿Ļä¸ªéĹ®é¢ĺ": 1906,
      "æ·»": 1907,
      "éģĩ": 1908,
      "æ°ĶåĢĻ": 1909,
      "il": 1910,
      "äº¤éĢļ": 1911,
      "\",\"": 1912,
      "åĩĨç¡®": 1913,
      "ä¸Ģåħ±": 1914,
      "è¯¢": 1915,
      "å±ŀäºİ": 1916,
      "ä¸ºä»Ģä¹Ī": 1917,
      "æľ¬ä¹¦": 1918,
      "æľīæķĪ": 1919,
      "éĻ¢": 1920,
      "ä¸°": 1921,
      "ce": 1922,
      "ä¸ºäºĨ": 1923,
      "æ²³": 1924,
      "åŃĹç¬¦": 1925,
      "æħ¢": 1926,
      "éģ¿åħį": 1927,
      "æ¤įçī©": 1928,
      "ig": 1929,
      "å¤§åĪ©": 1930,
      "ame": 1931,
      "åª": 1932,
      "æ¢¦": 1933,
      "çªģ": 1934,
      "æĽ´å¥½åľ°": 1935,
      "è¯Ńæ³ķ": 1936,
      "ç¬¬äºĮ": 1937,
      "é¢Ŀ": 1938,
      "æ¯Ľ": 1939,
      "å©": 1940,
      "å¦Ĥä¸ĭ": 1941,
      "ä¹īè¯į": 1942,
      "ul": 1943,
      "å®ĥä»¬çļĦ": 1944,
      "ä¼ģ": 1945,
      "æĿ¥è¯´": 1946,
      "åįĥ": 1947,
      "çľ¼": 1948,
      "æŁĵ": 1949,
      "çļĦæĥħæĦŁ": 1950,
      "èª": 1951,
      "æĢ§åĴĮ": 1952,
      "ä¼ĳ": 1953,
      "if": 1954,
      "æĶ¯æĮģ": 1955,
      "åĨĻä¸Ģç¯ĩ": 1956,
      "é¹": 1957,
      "æĥ³è¦ģ": 1958,
      "æł¡": 1959,
      "ä»£è¡¨": 1960,
      "æĻ®": 1961,
      "éĶĢåĶ®": 1962,
      "æ´²": 1963,
      "åĵĪ": 1964,
      "èĸ": 1965,
      "æ¸Ĳ": 1966,
      "è®©äºº": 1967,
      "é¢Ħæµĭ": 1968,
      "åŁºäºİ": 1969,
      "âĢĶ": 1970,
      "å¤ıå¤©": 1971,
      "çĩ": 1972,
      "ä¸ªç³ĸæŀľ": 1973,
      "ä»·åĢ¼": 1974,
      "è·Ŀ": 1975,
      "æĪĳä»¬éľĢè¦ģ": 1976,
      "ä¸įè¦ģ": 1977,
      "æ¯ıå¤©": 1978,
      "æĬ½": 1979,
      "çļĦæĸĩç«ł": 1980,
      "åıĮ": 1981,
      "vo": 1982,
      "åį³åı¯": 1983,
      "æİ§åĪ¶": 1984,
      "éĩĩçĶ¨": 1985,
      "éĩįè¦ģçļĦ": 1986,
      "èĶ¬": 1987,
      "25": 1988,
      "åĨ·": 1989,
      "ĠM": 1990,
      "éĤ®": 1991,
      "ä¼łç»Ł": 1992,
      "è·³": 1993,
      "éĿ¢ç§¯": 1994,
      "å·¥åħ·": 1995,
      "æĿ¡ä»¶": 1996,
      "Ġx": 1997,
      "è®Ńç»ĥ": 1998,
      "çŃĳ": 1999,
      "æİĴåºı": 2000,
      "åĿļ": 2001,
      "ĠJ": 2002,
      "èŃ": 2003,
      "å¹»": 2004,
      "ç¬ĳ": 2005,
      "çļĦçŁ": 2006,
      "ä»ĸä»¬çļĦ": 2007,
      "éĩİ": 2008,
      "åľºæĻ¯": 2009,
      "åįĪ": 2010,
      "ç¼ĸè¾ĳ": 2011,
      "åıĺå¾Ĺ": 2012,
      "åĨ¬": 2013,
      "èį¯": 2014,
      "çĽĬ": 2015,
      "åĳ¼": 2016,
      "16": 2017,
      "us": 2018,
      "å®ļçļĦ": 2019,
      "é¥Ń": 2020,
      "éĢīé¡¹": 2021,
      "èĥľ": 2022,
      "å°ıæĹ¶": 2023,
      "å½ķ": 2024,
      "14": 2025,
      "ir": 2026,
      "åĩ»": 2027,
      "çĶľ": 2028,
      "èĹ": 2029,
      "ä½³": 2030,
      "å»ºçŃĳ": 2031,
      "æŁĶ": 2032,
      "pr": 2033,
      "åĬŀ": 2034,
      "ä½¿åħ¶": 2035,
      "å®¢æĪ·": 2036,
      "mer": 2037,
      "æ´Ĺ": 2038,
      "èĶ¬èıľ": 2039,
      "æĺ¯æĮĩ": 2040,
      "çľĭåĪ°": 2041,
      "ç»ıåħ¸": 2042,
      "çī¹çĤ¹": 2043,
      "ä¸Ńå¿ĥ": 2044,
      "çļĦæķħäºĭ": 2045,
      "ä¸²": 2046,
      "èĩªçĶ±": 2047,
      "åĪĿ": 2048,
      "éķ¿åº¦": 2049,
      "éĢŁåº¦": 2050,
      "ç®±": 2051,
      "ç´§": 2052,
      "å½ĵçĦ¶åı¯ä»¥": 2053,
      "è¡ĮæĺŁ": 2054,
      "Ġ9": 2055,
      "éĵģ": 2056,
      "åĪĹåĩº": 2057,
      "ä½łèĥ½": 2058,
      "åĪĽå»º": 2059,
      "å¯»æī¾": 2060,
      "å°Ħ": 2061,
      "éĢı": 2062,
      "çīĻ": 2063,
      "åĽ°": 2064,
      "è£¤": 2065,
      "åĪĽéĢł": 2066,
      "æİ¢ç´¢": 2067,
      "åı«": 2068,
      "çļĦæĦŁ": 2069,
      "Ġde": 2070,
      "ä¼¤": 2071,
      "é¢ĳ": 2072,
      "çĪ±æĥħ": 2073,
      "æĿ¿": 2074,
      "æł¹æį®ä»¥ä¸ĭ": 2075,
      "est": 2076,
      "åĢĴ": 2077,
      "çķ¥": 2078,
      "ĠP": 2079,
      "æĽ¿": 2080,
      "ç¾¤": 2081,
      "æĬķ": 2082,
      "çī©åĵģ": 2083,
      "èķ": 2084,
      "æ°§": 2085,
      "æĢ»ç»ĵ": 2086,
      "è®²è¿°": 2087,
      "è®©æĪĳ": 2088,
      "çļĦçĶµå½±": 2089,
      "ä¸įä»ħ": 2090,
      "ä»ĺ": 2091,
      "åİŁåĽł": 2092,
      "èĻ½": 2093,
      "è¿ĺåı¯ä»¥": 2094,
      "çļĦæĸĩæľ¬": 2095,
      "åĪ¤æĸŃ": 2096,
      "éĢĲ": 2097,
      "çĽĸ": 2098,
      "åĿĲ": 2099,
      "æ±½è½¦": 2100,
      "éĥ¨çĶµå½±": 2101,
      "ä¸Ģæ¬¡": 2102,
      "åį´": 2103,
      "çļĦæĢ»": 2104,
      "ç§»": 2105,
      "ç³ķ": 2106,
      "æīĭæľº": 2107,
      "èĪ¬": 2108,
      "æĸĩåŃĹ": 2109,
      "ä¸ĭæĿ¥": 2110,
      "11": 2111,
      "åį«": 2112,
      "å¾Īå¥½": 2113,
      "å¥Ĺ": 2114,
      "à®": 2115,
      "éħ¸": 2116,
      "æĿĥ": 2117,
      "çīĽå¥¶": 2118,
      "ä¼¦": 2119,
      "ä»İèĢĮ": 2120,
      "è¿ĻéĩĮ": 2121,
      "æĭ¿": 2122,
      "ä¸Ģä½į": 2123,
      "Ġj": 2124,
      "æľīä¸Ģä¸ª": 2125,
      "è¯Ħä»·": 2126,
      "åĽłç´ł": 2127,
      "æķ´ä¸ª": 2128,
      "æĹ¶å°ļ": 2129,
      "æ¸©åº¦": 2130,
      "åĬĽåĴĮ": 2131,
      "é¾Ļ": 2132,
      "çº³": 2133,
      "æĥĬ": 2134,
      "çļĦå¤©æ°Ķ": 2135,
      "çİ¯ä¿Ŀ": 2136,
      "ä¸°å¯Į": 2137,
      "åħ°": 2138,
      "ra": 2139,
      "éĶħ": 2140,
      "ct": 2141,
      "é¡»": 2142,
      "çŁŃè¯Ń": 2143,
      "æ±ĩ": 2144,
      "è´Ńçī©": 2145,
      "åŃ©åŃĲ": 2146,
      "æķĻèĤ²": 2147,
      "åĪĽä½ľ": 2148,
      "ow": 2149,
      "áŀ": 2150,
      "çļĦåıĳå±ķ": 2151,
      "ä¸įä¼ļ": 2152,
      "ist": 2153,
      "èĩªçĦ¶è¯Ńè¨Ģ": 2154,
      "å®ĩ": 2155,
      "é£Łåĵģ": 2156,
      "è·Ŀç¦»": 2157,
      "çļĦç¬": 2158,
      "çļĦå°ı": 2159,
      "Ġåľ¨": 2160,
      "éĽª": 2161,
      "è¿Ļæĺ¯ä¸Ģä¸ª": 2162,
      "å½¢å¼ı": 2163,
      "ï¼īãĢĤ": 2164,
      "è¿Ļæĺ¯ä¸Ģ": 2165,
      "200": 2166,
      "Ġ0": 2167,
      "åħ³æ³¨": 2168,
      "éļıçĿĢ": 2169,
      "åı¥åŃĲä¸Ń": 2170,
      "è¡¨æĺİ": 2171,
      "ç¤¼": 2172,
      "å¼Ģåıĳ": 2173,
      "ke": 2174,
      "é¥°": 2175,
      "å½¢æĪĲ": 2176,
      "Ġbe": 2177,
      "é¸¡èĽĭ": 2178,
      "è¿Ļç¯ĩæĸĩç«ł": 2179,
      "åĲ¸å¼ķ": 2180,
      "å³°": 2181,
      "å¨ģ": 2182,
      "è°ģ": 2183,
      "éĴĪ": 2184,
      "æ·»åĬł": 2185,
      "æĸ¹ç¨ĭ": 2186,
      "æĮģç»Ń": 2187,
      "ç»Ħç»ĩ": 2188,
      "è¯´æĺİ": 2189,
      "èĿ": 2190,
      "èĻ½çĦ¶": 2191,
      "æĺ¯åľ¨": 2192,
      "å¥¥": 2193,
      "ä¸ĢæŃ¥": 2194,
      "æĬĺ": 2195,
      "çĤĴ": 2196,
      "å½ĵåľ°": 2197,
      "æŃ¢": 2198,
      "ç»ĦæĪĲ": 2199,
      "æĭŁ": 2200,
      "ä¹³": 2201,
      "çĽĺ": 2202,
      "å·¨": 2203,
      "çĨĬ": 2204,
      "å·§åħĭ": 2205,
      "æĸ¹æ¡Ī": 2206,
      "åĩºäºĨ": 2207,
      "æ··": 2208,
      "13": 2209,
      "ç®ĢçŁŃ": 2210,
      "çļĦéĩįè¦ģ": 2211,
      "æĮĳæĪĺ": 2212,
      "å¡«": 2213,
      "æķ°ä¸º": 2214,
      "çī©è´¨": 2215,
      "æ±ģ": 2216,
      "ï¼ļ\"": 2217,
      "çĸĳ": 2218,
      "å¯¹è¯Ŀ": 2219,
      "åĪĨåĪ«": 2220,
      "ld": 2221,
      "ï¼ĮâĢľ": 2222,
      "æ´ŀ": 2223,
      "ä¸´": 2224,
      "è°¢è°¢": 2225,
      "ç±»åĪ«": 2226,
      "name": 2227,
      "æĸĩåŃ¦": 2228,
      "æ½®": 2229,
      "èĦļ": 2230,
      "è½¬æį¢": 2231,
      "è®¾å¤ĩ": 2232,
      "ä¸ĬæľĢ": 2233,
      "åĲįè¯į": 2234,
      "æĢ§çļĦ": 2235,
      "åŃ£èĬĤ": 2236,
      "æĪĳä¼ļ": 2237,
      "ç¿»è¯ĳæĪĲä¸Ńæĸĩ": 2238,
      "çĽĲ": 2239,
      "åı¦å¤ĸ": 2240,
      "åħ¬å¼ı": 2241,
      "äºĭæĥħ": 2242,
      "æŃ¥éª¤": 2243,
      "ä¾Ŀ": 2244,
      "æ©ĻåŃĲ": 2245,
      "åĪĨç»Ļ": 2246,
      "è¿ĺåī©ä¸ĭ": 2247,
      "çī¹åĪ«": 2248,
      "é¥®é£Ł": 2249,
      "çļĦæ°´": 2250,
      "Ġdo": 2251,
      "ĠT": 2252,
      "åı¯ä»¥å¸®åĬ©": 2253,
      "ä¸ĵä¸ļ": 2254,
      "å·§åħĭåĬĽ": 2255,
      "çĭ¬çī¹": 2256,
      "é¥¼": 2257,
      "ä»¤äºº": 2258,
      "åĬª": 2259,
      "ä¼ģä¸ļ": 2260,
      "çļĦæĬĢ": 2261,
      "æ¬¢è¿İ": 2262,
      "æķĪæŀľ": 2263,
      "ç¤¾äº¤": 2264,
      "éĵ¶": 2265,
      "æķ°åŃ¦é¢ĺ": 2266,
      "èµĦæºĲ": 2267,
      "èĢĮä¸Ķ": 2268,
      "æĺ¨": 2269,
      "çº¢èī²": 2270,
      "åĢĭ": 2271,
      "å¹¸": 2272,
      "æĪĳåĸľæ¬¢": 2273,
      "çºª": 2274,
      "åı¯ä»¥ä½¿çĶ¨": 2275,
      "å°ıåŃ¦": 2276,
      "Ġå°Ĩ": 2277,
      "æķĪçİĩ": 2278,
      "çĨŁ": 2279,
      "è´ŁéĿ¢": 2280,
      "ç¼ĵ": 2281,
      "éĤ®ä»¶": 2282,
      "è¿·": 2283,
      "æ²ī": 2284,
      "ĠÃĹ": 2285,
      "æĳĦ": 2286,
      "èģļ": 2287,
      "åı£æĦŁ": 2288,
      "Ġfor": 2289,
      "ç¾İé£Ł": 2290,
      "çħ®": 2291,
      "çł´": 2292,
      "å¸¸è§ģ": 2293,
      "å®½": 2294,
      "æĶ¹åıĺ": 2295,
      "age": 2296,
      "å¾Ħ": 2297,
      "çļĦæĶ": 2298,
      "éŃĶ": 2299,
      "æľ«": 2300,
      "æĽ´å¤ļçļĦ": 2301,
      "ç£": 2302,
      "è§Ĵèī²": 2303,
      "è´¢": 2304,
      "é¡ºåºı": 2305,
      "å»ºç«ĭ": 2306,
      "åıĤåĬł": 2307,
      "çļĦæı": 2308,
      "ç»ıåİĨ": 2309,
      "åľ°åĮº": 2310,
      "é«ĺçļĦ": 2311,
      "åı¯ä»¥éĢļè¿ĩ": 2312,
      "æµĵ": 2313,
      "voice": 2314,
      "éĥ½æľī": 2315,
      "çļĦçĪ": 2316,
      "Ġtax": 2317,
      "éĹ²": 2318,
      "chant": 2319,
      "åŁºæľ¬": 2320,
      "print": 2321,
      "çĥĪ": 2322,
      "èĤ¡": 2323,
      "Ġla": 2324,
      "ä¸Ģå¤©": 2325,
      "æĲľ": 2326,
      "åĨ³å®ļ": 2327,
      "åŃĹç¬¦ä¸²": 2328,
      "å¿Ĺ": 2329,
      "ä¸¥": 2330,
      "ç»Ŀ": 2331,
      "tax": 2332,
      "çļĦæĸ¹æ³ķ": 2333,
      "merchant": 2334,
      "åįļ": 2335,
      "çļĦä¸»è¦ģ": 2336,
      "æĦī": 2337,
      "åŃ¤": 2338,
      "åªĴ": 2339,
      "ç¹": 2340,
      "ï¼īï¼Į": 2341,
      "èĨ": 2342,
      "ĠD": 2343,
      "åįı": 2344,
      "åĭĩ": 2345,
      "åı³": 2346,
      "æľĹ": 2347,
      "é©¶": 2348,
      "ªæĸ½": 2349,
      "æĦıå¤§åĪ©": 2350,
      "å¤įæĿĤ": 2351,
      "çº¸": 2352,
      "é¾Ħ": 2353,
      "è¡¡": 2354,
      "éĢĻ": 2355,
      "ä½įäºİ": 2356,
      "ä¸ĢçĽ´": 2357,
      "æ°ĶåĢĻåıĺåĮĸ": 2358,
      "åĩī": 2359,
      "æĺİå¤©": 2360,
      "åıįåºĶ": 2361,
      "ä»¥ä¸Ĭ": 2362,
      "æ¥¼": 2363,
      "ä¼´": 2364,
      "ç¾İåĳ³": 2365,
      "ä»Ģä¹Īæĺ¯": 2366,
      "éº¼": 2367,
      "çº½": 2368,
      "æĵį": 2369,
      "æ¤Ĵ": 2370,
      "çļĦæ°Ķ": 2371,
      "Ġv": 2372,
      "ç»§": 2373,
      "ĠÃ·": 2374,
      "24": 2375,
      "ä¸įéĶĻ": 2376,
      "çĶŁæĢģ": 2377,
      "ä¿ĥ": 2378,
      "å·¦": 2379,
      "è¡Ģ": 2380,
      "çĿ¡": 2381,
      "æĭ¼": 2382,
      "çĶµè§Ĩ": 2383,
      "ull": 2384,
      "æĿ¥è¶Ĭ": 2385,
      "ç«¯": 2386,
      "Ġr": 2387,
      "çĽ¸ä¼¼": 2388,
      "åĸĿ": 2389,
      "ä»į": 2390,
      "çļĦæ²": 2391,
      "èĥ½æºĲ": 2392,
      "ä¸Ģå®ļ": 2393,
      "é¡¹çĽ®": 2394,
      "è¶ĬæĿ¥è¶Ĭ": 2395,
      "¾çĹħ": 2396,
      "Ġst": 2397,
      "çŁ¥è¯Ĩ": 2398,
      "å¿ħé¡»": 2399,
      "ä¹ħ": 2400,
      "æ¬§": 2401,
      "ç»ª": 2402,
      "è¢ĭ": 2403,
      "çļĦåºĶçĶ¨": 2404,
      "æī§": 2405,
      "æľīä»Ģä¹Ī": 2406,
      "å¹³æĸ¹": 2407,
      "æ¶ī": 2408,
      "æļĹ": 2409,
      "æŃĮæĽ²": 2410,
      "çĶŁäº§": 2411,
      "è½¯ä»¶": 2412,
      "åı£åĳ³": 2413,
      "åĨĽ": 2414,
      "æ±ī": 2415,
      "å®ł": 2416,
      "åºľ": 2417,
      "å®Ļ": 2418,
      "æľīå¾Īå¤ļ": 2419,
      "éĻĪ": 2420,
      "çļĦçľ": 2421,
      "å¹´è½»": 2422,
      "åĬªåĬĽ": 2423,
      "éĩıçļĦ": 2424,
      "è§ĤçĤ¹": 2425,
      "èģĬ": 2426,
      "ä»Ģéº¼": 2427,
      "å¿ĥçĲĨ": 2428,
      "17": 2429,
      "é¡¿": 2430,
      "æľµ": 2431,
      "ç»Ļå®ļä¸Ģä¸ª": 2432,
      "åıªæľī": 2433,
      "æĶ¾æĿ¾": 2434,
      "å±Ģ": 2435,
      "çĤ¼": 2436,
      "åĩºæĿ¥": 2437,
      "å®ŀéĻħ": 2438,
      "åŁºç¡": 2439,
      "å®ĩå®Ļ": 2440,
      "åŃĹæ®µ": 2441,
      "åķĨåĵģæĸĩæ¡Ī": 2442,
      "åŁºç¡Ģ": 2443,
      "ä¸Ŀ": 2444,
      "è¿Ļéĥ¨çĶµå½±": 2445,
      "èĽĭç³ķ": 2446,
      "å¿«éĢŁ": 2447,
      ".\"": 2448,
      "2021": 2449,
      "èĤ¤": 2450,
      "èĻļ": 2451,
      "ĠW": 2452,
      "èĪª": 2453,
      "è®©æĪĳä»¬": 2454,
      "åı¯ä»¥åľ¨": 2455,
      "ation": 2456,
      "åĪĽæĦı": 2457,
      "éļĲ": 2458,
      "åĵªä¸ª": 2459,
      "æ³³": 2460,
      "Ġ20": 2461,
      "ç¥ŀç§ĺ": 2462,
      "çļĦç³": 2463,
      "..": 2464,
      "Ġqu": 2465,
      "æĭĮ": 2466,
      "éĩĩåıĸ": 2467,
      "èĩªçĦ¶è¯Ńè¨Ģå¤ĦçĲĨ": 2468,
      "åĪĨåĪ°": 2469,
      "çº½çº¦": 2470,
      "ç¾İåħĥ": 2471,
      "åĮ»çĶŁ": 2472,
      "éľ²": 2473,
      "åĬ¨ä½ľ": 2474,
      "ä¸ĭåĪĹ": 2475,
      "è¡Ĺ": 2476,
      "æ»¡è¶³": 2477,
      "ä½¿å¾Ĺ": 2478,
      "æ£®": 2479,
      "è¸": 2480,
      "æŃ£éĿ¢": 2481,
      "äººçī©": 2482,
      "çĽ¸åĲĮ": 2483,
      "¡èĲ": 2484,
      "ãĢģãĢĬ": 2485,
      "åģľ": 2486,
      "ä¾ĭåŃĲ": 2487,
      "èĮĥåĽ´": 2488,
      "èģĶç³»": 2489,
      "å¿«ä¹Ĳ": 2490,
      "å¤©ç©º": 2491,
      "ly": 2492,
      "ä»¥ä¾¿": 2493,
      "åĨľ": 2494,
      "çģ¯": 2495,
      "æĬ¥éģĵ": 2496,
      "å¹´é¾Ħ": 2497,
      "åħ¬åı¸çļĦ": 2498,
      "åħ´è¶£": 2499,
      "æ²»çĸĹ": 2500,
      "ä»¿": 2501,
      "ç³»åĪĹ": 2502,
      "ç½ĳç«Ļ": 2503,
      "åĮĢ": 2504,
      "60": 2505,
      "å¥ĸ": 2506,
      "åºĬ": 2507,
      "èµı": 2508,
      "ith": 2509,
      "ri": 2510,
      "è´£": 2511,
      "æĺ¯å¤ļå°ĳ": 2512,
      "éĩįæĸ°": 2513,
      "è·Ł": 2514,
      "æµĭè¯ķ": 2515,
      "çķħ": 2516,
      "çĦ¶èĢĮ": 2517,
      "èĳ±": 2518,
      "åĪĨç±»ä¸º": 2519,
      "æŃ£ç¡®çļĦ": 2520,
      "æĲŃéħį": 2521,
      "ä»¥ä¸ĭæĺ¯ä¸Ģéģĵ": 2522,
      "æķĳ": 2523,
      "æĦŁè°¢": 2524,
      "å¯Ł": 2525,
      "å®łçī©": 2526,
      "æĦıä¹ī": 2527,
      "å°ıåŃ¦æķ°åŃ¦é¢ĺ": 2528,
      "ä¼ļè®®": 2529,
      "æ°¸": 2530,
      "èĥĮæĻ¯": 2531,
      "çļĦæĮ": 2532,
      "è¶ĭ": 2533,
      "åĢ¼å¾Ĺ": 2534,
      "æĲľç´¢": 2535,
      "é£İéĻ©": 2536,
      "ä»¥ä¸ĭæĺ¯ä¸Ģéģĵå°ıåŃ¦æķ°åŃ¦é¢ĺ": 2537,
      "çĽĳ": 2538,
      "é¢Ĺç³ĸæŀľ": 2539,
      "çļĦå¤§": 2540,
      "èŃ¦": 2541,
      "åĨĴ": 2542,
      "è¿ĩç¨ĭä¸Ń": 2543,
      "åºĵ": 2544,
      "é¥®æĸĻ": 2545,
      "æ±Ł": 2546,
      "ç®ĢåįķçļĦ": 2547,
      "å¡Ķ": 2548,
      "è¯·åĳĬè¯īæĪĳ": 2549,
      "èĵĿèī²": 2550,
      "å¤«": 2551,
      "ç©ºæ°Ķ": 2552,
      "çĹĩ": 2553,
      "æ±¤": 2554,
      "çĤº": 2555,
      "åĺ": 2556,
      "çļĦçĥ": 2557,
      "çĸ«": 2558,
      "ç»§ç»Ń": 2559,
      "ä¸Ĭæµ·": 2560,
      "ç¬¦åĲĪ": 2561,
      "æľīå¤ļå°ĳ": 2562,
      "çĥ§": 2563,
      "åªĴä½ĵ": 2564,
      "å¤ļä¸ª": 2565,
      "åķĬ": 2566,
      "æĿŁ": 2567,
      "2022": 2568,
      "ĠL": 2569,
      "çĸ¾çĹħ": 2570,
      "Ġon": 2571,
      "èľľ": 2572,
      "çĽ®åīį": 2573,
      "æ£ĢæŁ¥": 2574,
      "æ¸ħæĻ": 2575,
      "ĠH": 2576,
      "çļĦä¸»é¢ĺ": 2577,
      "ç¹ģ": 2578,
      "å®¹æĺĵ": 2579,
      "èĹı": 2580,
      "çĵ¶": 2581,
      "çļĦçł": 2582,
      "çļĦæķ°éĩı": 2583,
      "è¯įæ±ĩ": 2584,
      "ĠÐ": 2585,
      "åĪĽæĸ°": 2586,
      "é»İ": 2587,
      "æĦŁè§ī": 2588,
      "çİī": 2589,
      "æĽ¾": 2590,
      "åİļ": 2591,
      "æ·±åº¦": 2592,
      "ä¸ĬéĿ¢": 2593,
      "è´§": 2594,
      "æİªæĸ½": 2595,
      "«èĲ¨": 2596,
      "éĿ¢åĮħ": 2597,
      "èĢĲ": 2598,
      "æŀ¶": 2599,
      "åŃ¦æł¡": 2600,
      "è®¨è®º": 2601,
      "æ··åĲĪ": 2602,
      "ĠF": 2603,
      "çļĦæłĩ": 2604,
      "æĦ¿": 2605,
      "ç®Ģæ´ģ": 2606,
      "ie": 2607,
      "æ£Ĵ": 2608,
      "çļĦæµ·": 2609,
      "Ġ12": 2610,
      "å¾Ĺåĩº": 2611,
      "ãĢĭãĢģãĢĬ": 2612,
      "åĽ¢éĺŁ": 2613,
      "è°±": 2614,
      "è¿Ļä¸ªåı¥åŃĲ": 2615,
      "åĵº": 2616,
      "ers": 2617,
      "èĮĦ": 2618,
      "40": 2619,
      "ä½Ľ": 2620,
      "åĬĽéĩı": 2621,
      "åĸľæ¬¢çļĦ": 2622,
      "æĬ½åıĸ": 2623,
      "è´µ": 2624,
      "è¯įè¯Ń": 2625,
      "è¯»èĢħ": 2626,
      "ç»Ļåĩºä¸Ģä¸ª": 2627,
      "åĽłä¸ºå®ĥ": 2628,
      "è¾Ĩ": 2629,
      "åĶ±": 2630,
      "å¿Ĩ": 2631,
      "åĳ³éģĵ": 2632,
      "Ã©": 2633,
      "å¦Ī": 2634,
      "è§īå¾Ĺ": 2635,
      "app": 2636,
      "çī©çĲĨ": 2637,
      "ç§ģ": 2638,
      "æ¹ĸ": 2639,
      "ä»¥ä¸ĭåı¥åŃĲ": 2640,
      "å¤ļç§į": 2641,
      "éĢłæĪĲ": 2642,
      "éĿł": 2643,
      "åĤ¨": 2644,
      "æ»ĳ": 2645,
      "æ³ķè¯Ń": 2646,
      "åģı": 2647,
      "åľ°çĤ¹": 2648,
      "éĵ¾": 2649,
      "ĠE": 2650,
      "æĹı": 2651,
      "è¶ĭåĬ¿": 2652,
      "åĲĪéĢĤ": 2653,
      "æľīäºĽ": 2654,
      "è¡ĮåĬ¨": 2655,
      "è¡£æľį": 2656,
      "å®ĺ": 2657,
      "èķī": 2658,
      "æķ°çļĦ": 2659,
      "å²Ľ": 2660,
      "éĶ»": 2661,
      "æĢĿèĢĥ": 2662,
      "éĢĶ": 2663,
      "ç»ıéªĮ": 2664,
      "è¿Ķ": 2665,
      "èİĵ": 2666,
      "åĬ±": 2667,
      "æĬĢå·§": 2668,
      "æ¶īåıĬ": 2669,
      "æ³¡": 2670,
      "çī©ä½ĵ": 2671,
      "éĻ¤ä»¥": 2672,
      "éĽħ": 2673,
      "Ġle": 2674,
      "æĺ¨å¤©": 2675,
      "çľģ": 2676,
      "éĶ»çĤ¼": 2677,
      "åĢĳ": 2678,
      "æķı": 2679,
      "äºĭå®ŀ": 2680,
      "å§Ĩ": 2681,
      "ç¯®": 2682,
      "æ¯ıä¸ªæľĭåıĭ": 2683,
      "æ±¡": 2684,
      "æĵįä½ľ": 2685,
      "ol": 2686,
      "é¦Ļèķī": 2687,
      "çĶŁæĪĲåķĨåĵģæĸĩæ¡Ī": 2688,
      "Ġ'": 2689,
      "æĶ¯éĵħç¬Ķ": 2690,
      "ç§ĭå¤©": 2691,
      "å¿ĺ": 2692,
      "çŃīäºİ": 2693,
      "è®©ä½ł": 2694,
      "æķ°æį®éĽĨ": 2695,
      "ç«¥": 2696,
      "our": 2697,
      "å¸ģ": 2698,
      "åħ¬éĩĮ": 2699,
      "æİī": 2700,
      "åĮĸåŃ¦": 2701,
      "num": 2702,
      "è¾£": 2703,
      "éĩĮæľī": 2704,
      "æ¹¿": 2705,
      "é©¾": 2706,
      "å¤ıåŃ£": 2707,
      "ç¼ĸç¨ĭ": 2708,
      "ç»¿èī²": 2709,
      "å®ļä¹ī": 2710,
      "çļĦæľĢ": 2711,
      "éĢĤå½ĵ": 2712,
      "è¶ħè¿ĩ": 2713,
      "åİ»äºĨ": 2714,
      "ç¨³": 2715,
      "os": 2716,
      "åĵºä¹³": 2717,
      "çĶµèĦĳ": 2718,
      "åıĹæ¬¢è¿İ": 2719,
      "æ¯Ĵ": 2720,
      "res": 2721,
      "æ¯ıä¸ªäºº": 2722,
      "å°Ĭ": 2723,
      "ab": 2724,
      "éĸ": 2725,
      "æİĴåĪĹ": 2726,
      "æĶ¹åĸĦ": 2727,
      "éº¦": 2728,
      "æµģè¡Į": 2729,
      "æĤ£": 2730,
      "ĠâĢľ": 2731,
      "æĶ¾åħ¥": 2732,
      "çĶ¨æĿ¥": 2733,
      "ort": 2734,
      "åĬ¨è¯į": 2735,
      "æ¸¸æ³³": 2736,
      "å¦Ļ": 2737,
      "åĳĪ": 2738,
      "ĠG": 2739,
      "éĨĴ": 2740,
      "æ¶¦": 2741,
      "è®¢": 2742,
      "ä¸ŃæľĢ": 2743,
      "å·´é»İ": 2744,
      "æĥħèĬĤ": 2745,
      "Ø§": 2746,
      "æĤ¦": 2747,
      "åĪļ": 2748,
      "æľºä¼ļ": 2749,
      "è¿Ļä¸¤ä¸ª": 2750,
      "æĬ±": 2751,
      "æŃ»": 2752,
      "æ¸©æļĸ": 2753,
      "æıĲä¾Ľä¸Ģä¸ª": 2754,
      "å¯Ĵ": 2755,
      "ç¼©": 2756,
      "åİĺ": 2757,
      "av": 2758,
      "çĻ»": 2759,
      "åľ¨ä¸Ģèµ·": 2760,
      "ç»ĥä¹ł": 2761,
      "æĺ¯çĶ±": 2762,
      "ä¹°äºĨ": 2763,
      "çľł": 2764,
      "ä¸įåı¯": 2765,
      "åĲİçļĦ": 2766,
      "äººåĲį": 2767,
      "æİ¢è®¨": 2768,
      "å¹¿åĳĬ": 2769,
      "æľīçĿĢ": 2770,
      "æĹĭ": 2771,
      "Ġ*": 2772,
      "è¿Ľä¸ĢæŃ¥": 2773,
      "åį±": 2774,
      "ä¸ĢèĪ¬": 2775,
      "æĺł": 2776,
      "èħ¿": 2777,
      "ä¼°": 2778,
      "od": 2779,
      "å¼ºè°ĥ": 2780,
      "è¿Ļä¸Ģ": 2781,
      "çļĦæĳ": 2782,
      "åģ¥èº«": 2783,
      "èµŀ": 2784,
      "çļĦç¤": 2785,
      "æĴŃ": 2786,
      "çļĦåľ°æĸ¹": 2787,
      "æ¬£": 2788,
      "è¯Ĭ": 2789,
      "å¾ª": 2790,
      "è²": 2791,
      "çļĦè¯Ŀ": 2792,
      "çļĦæ®": 2793,
      "è¡¨éĿ¢": 2794,
      "æĬ¥åĳĬ": 2795,
      "çļĦç³ĸ": 2796,
      "æ¡Į": 2797,
      "åĩĢ": 2798,
      "éģĹ": 2799,
      "XX": 2800,
      "æ¦Ĥæĭ¬": 2801,
      "å½¢å®¹": 2802,
      "em": 2803,
      "è¿Ľè¡ĮåĪĨç±»": 2804,
      "æ°Ķæ¸©": 2805,
      "åĲĮä¹īè¯į": 2806,
      "çļĦæīĢ": 2807,
      "åħ±åĲĮ": 2808,
      "ä¸Ģæł·": 2809,
      "æ¶²": 2810,
      "æĸ¹åĲĳ": 2811,
      "è¿ĩåİ»": 2812,
      "æĻļä¸Ĭ": 2813,
      "èĩ³å°ĳ": 2814,
      "å¹´çļĦ": 2815,
      "åĳ¼åĲ¸": 2816,
      "pe": 2817,
      "ps": 2818,
      "æĶ¿åºľ": 2819,
      "éĽ¶": 2820,
      "æľĿ": 2821,
      "èĢ³": 2822,
      "ä¼ĳéĹ²": 2823,
      "çļĦæŃĮ": 2824,
      "ang": 2825,
      "å¹¸ç¦ı": 2826,
      "çķª": 2827,
      "èĳĹåĲįçļĦ": 2828,
      "éĴĪå¯¹": 2829,
      "æ±ł": 2830,
      "é¼ł": 2831,
      "æĺŁæľŁ": 2832,
      "æİ¥ä¸ĭæĿ¥": 2833,
      "æł¸": 2834,
      "ç»ĺ": 2835,
      "çļĦæĹ¶åĢĻ": 2836,
      "çļĦçĭ": 2837,
      "ç¥Ŀ": 2838,
      "æĹ¥æľ¬": 2839,
      "ç»ıå¸¸": 2840,
      "æıĲä¾ĽäºĨ": 2841,
      "å¼ķèµ·": 2842,
      "å®£": 2843,
      "è¯¾": 2844,
      "åıĹåĪ°": 2845,
      "éĻĦ": 2846,
      "æĽ¿æį¢": 2847,
      "æ¸ħåįķ": 2848,
      "åħ¶ä¸ŃçļĦ": 2849,
      "ç»ĨèĬĤ": 2850,
      "æĹ¨": 2851,
      "ä¿®æĶ¹": 2852,
      "ht": 2853,
      "äººçĶŁ": 2854,
      "é¡¾": 2855,
      "æķ£æŃ¥": 2856,
      "row": 2857,
      "è¡Įä¸ļ": 2858,
      "çļĦæ³": 2859,
      "åľ¨ä¸Ģä¸ª": 2860,
      "çŃīæĸ¹éĿ¢": 2861,
      "åĪĽå»ºä¸Ģä¸ª": 2862,
      "ç§Ģ": 2863,
      "å½¢çļĦ": 2864,
      "ĠçļĦ": 2865,
      "å¥ı": 2866,
      "ç±į": 2867,
      "èĲ¥åħ»": 2868,
      "åİĭåĬĽ": 2869,
      "å¹ħ": 2870,
      "çļĦæĥħåĨµ": 2871,
      "èĥ½åĲ¦": 2872,
      "éĩıåŃĲ": 2873,
      "åĳĺå·¥": 2874,
      "ç§ĳå¹»": 2875,
      "çĽĽ": 2876,
      "åĵºä¹³åĬ¨çī©": 2877,
      "çĮ®": 2878,
      "å°ģ": 2879,
      "åĨ²": 2880,
      "Ġk": 2881,
      "çĽĴ": 2882,
      "æıĲä¾ĽçļĦ": 2883,
      "æĹłè®º": 2884,
      "è¿Ļæ¬¾": 2885,
      "äººæķ°": 2886,
      "ãĢĤâĢľ": 2887,
      "åĿĩåĮĢ": 2888,
      "(\"": 2889,
      "åĽŀçŃĶéĹ®é¢ĺ": 2890,
      "åĬ©äºİ": 2891,
      "ick": 2892,
      "çļĦçŁŃ": 2893,
      "èĭı": 2894,
      "å°º": 2895,
      "æłĩåĩĨ": 2896,
      "å¥¹çļĦ": 2897,
      "å¤§åŃ¦": 2898,
      "æĭħ": 2899,
      "ç©ºéĹ´": 2900,
      "ä¸Ģæ¬¾": 2901,
      "è¿Ļé¦ĸ": 2902,
      "çļĦæīĢæľī": 2903,
      "çļĦæ®µ": 2904,
      "éĩĳèŀį": 2905,
      "æĲħ": 2906,
      "æľºåĻ¨äºº": 2907,
      "éĻįä½İ": 2908,
      "80": 2909,
      "ä¸ĭæĸĩ": 2910,
      "å¹¶åľ¨": 2911,
      "åĲĪä½ľ": 2912,
      "çĽ´åĪ°": 2913,
      "åĪĨä¸º": 2914,
      "è°·": 2915,
      "èĩªæĪĳ": 2916,
      "çļĦçĪ±": 2917,
      "çĵľ": 2918,
      "å°¾": 2919,
      "é¼ĵ": 2920,
      "ä¸ºæĪĳ": 2921,
      "å®Ī": 2922,
      "å®«": 2923,
      "å¢ŀå¼º": 2924,
      "çģ¾": 2925,
      "åĨ³çŃĸ": 2926,
      "ä¸ĸçķĮä¸ĬæľĢ": 2927,
      "ex": 2928,
      "è¶³çĲĥ": 2929,
      "çŃĶæ¡Īæĺ¯": 2930,
      "èģĶç½ĳ": 2931,
      "åĲĮæĹ¶ä¹Ł": 2932,
      "Ġfo": 2933,
      "çıį": 2934,
      "æī¿": 2935,
      "è°ĥæķ´": 2936,
      "ĠR": 2937,
      "åĪĨæĪĲ": 2938,
      "çļĦæ´": 2939,
      "çıł": 2940,
      "è½®": 2941,
      "æİĮ": 2942,
      "åĲ«ä¹ī": 2943,
      "end": 2944,
      "äººå·¥æĻºèĥ½æĬĢæľ¯": 2945,
      "åĿ¦": 2946,
      "å¥³çĶŁ": 2947,
      "ä¹İ": 2948,
      "æµ·æ´ĭ": 2949,
      "è¿Ļæ®µæĸĩæľ¬": 2950,
      "è´Ŀ": 2951,
      "ç±»ä¼¼": 2952,
      "å°½ç®¡": 2953,
      "æĬĢèĥ½": 2954,
      "å½ĵåīį": 2955,
      "åĪĨäº«": 2956,
      "å¥³åŃ©": 2957,
      "çī¹å®ļ": 2958,
      "æ¸ħæĻ°": 2959,
      "çĹĽ": 2960,
      "____": 2961,
      "æīĢæľīçļĦ": 2962,
      "åį·": 2963,
      "å¤ªéĺ³ç³»": 2964,
      "åĹ": 2965,
      "ĥåľ": 2966,
      "å£°éŁ³": 2967,
      "é«ĺåº¦": 2968,
      "Ġare": 2969,
      "ĠæĪĳ": 2970,
      "åŃ¤çĭ¬": 2971,
      "æĸĹ": 2972,
      "ä¿ĥè¿Ľ": 2973,
      "å©ļ": 2974,
      "éĹª": 2975,
      "åŀĥåľ": 2976,
      "åŀĥåľ¾": 2977,
      "æ±¡æŁĵ": 2978,
      "çļĦæ®µèĲ½": 2979,
      "ç¬¬ä¸Ģ": 2980,
      "à¦": 2981,
      "æĲħæĭĮ": 2982,
      "åĽº": 2983,
      "æ´¾": 2984,
      "è®ºæĸĩ": 2985,
      "çĽ¸å¯¹": 2986,
      "ä»İä»¥ä¸ĭ": 2987,
      "çĬ¶æĢģ": 2988,
      "çļĦæıı": 2989,
      "çļĦæĦıæĢĿ": 2990,
      "åħŃ": 2991,
      "åľ°æĸ¹": 2992,
      "ç¥ŀç»ı": 2993,
      "è¿ĶåĽŀ": 2994,
      "çļĦæĸ¹å¼ı": 2995,
      "æģĲ": 2996,
      "äººåĳĺ": 2997,
      "ç§ĳåŃ¦å®¶": 2998,
      "æĬĹ": 2999,
      "å¹³åı°": 3000,
      "è½»æĿ¾": 3001,
      "è¯ŃéŁ³": 3002,
      "èģĮä¸ļ": 3003,
      "å®ŀéªĮ": 3004,
      "æĸ¹ä¾¿": 3005,
      "çĦ¦": 3006,
      "åİĺç±³": 3007,
      "æĿ¥èĩª": 3008,
      "çĽ´æİ¥": 3009,
      "æļ´": 3010,
      "çº¯": 3011,
      "æĬ«èĲ¨": 3012,
      "ä¸īè§Ĵ": 3013,
      "æĹ©ä¸Ĭ": 3014,
      "Ġun": 3015,
      "éļıæľº": 3016,
      "åı¯ä»¥è¢«": 3017,
      "æĦŁåıĹåĪ°": 3018,
      "çĶ·çĶŁ": 3019,
      "åĵªéĩĮ": 3020,
      "é»Ħèī²": 3021,
      "çļĦçłĶç©¶": 3022,
      "çİ°å®ŀ": 3023,
      "Ġ15": 3024,
      "å¹³è¡¡": 3025,
      "oh": 3026,
      "èĤĮ": 3027,
      "45": 3028,
      "é»ĳæ´ŀ": 3029,
      "çļĦæĹ¶éĹ´": 3030,
      "ç¢³": 3031,
      "éª¨": 3032,
      "èļ": 3033,
      "Ð°": 3034,
      "ï¼ŁâĢĿ": 3035,
      "æľīåĬ©äºİ": 3036,
      "çĶ²": 3037,
      "æī¾åĩº": 3038,
      "æ³°": 3039,
      "90": 3040,
      "çĶŁæĹ¥": 3041,
      "çļĦæ¯Ķ": 3042,
      "åĪº": 3043,
      "åŃĲçļĦ": 3044,
      "æ°´å¹³": 3045,
      "è¡¨æł¼": 3046,
      ".ãĢĬ": 3047,
      "éĴ¢": 3048,
      "éĻĪè¿°": 3049,
      "åģ¶": 3050,
      "æ³ķå¾ĭ": 3051,
      "ä¹ĭåīį": 3052,
      "çļĦæĻ¯": 3053,
      "äºĶä¸ª": 3054,
      "å°į": 3055,
      "çİ°è±¡": 3056,
      "æĪ·å¤ĸ": 3057,
      "çļĦè¯ĹæŃĮ": 3058,
      "æį·": 3059,
      "Ġli": 3060,
      "æĶ¾åľ¨": 3061,
      "èĭ¦": 3062,
      "åģļåĩº": 3063,
      "çļĦå»ºè®®": 3064,
      "çŃ¾": 3065,
      "å·¥ç¨ĭ": 3066,
      "çĴ": 3067,
      "ä¸ĢåĲį": 3068,
      "æī§è¡Į": 3069,
      "çİĽ": 3070,
      "çĩĥ": 3071,
      "åĵ¥": 3072,
      "æıĲåĪ°": 3073,
      "çķªèĮĦ": 3074,
      "çļĦåįķè¯į": 3075,
      "è§Ĩè§ī": 3076,
      "èĥ½éĩı": 3077,
      "å¥ĭ": 3078,
      "æ·±åħ¥": 3079,
      "ä¸ľè¥¿": 3080,
      "çĤİ": 3081,
      "Ġwith": 3082,
      "èľĤ": 3083,
      "æĥ¯": 3084,
      "å°Ĩå®ĥä»¬": 3085,
      "Ġdog": 3086,
      "ç¿»è¯ĳæĪĲèĭ±æĸĩ": 3087,
      "æķ´æķ°": 3088,
      "å±ķç¤º": 3089,
      "çļĦçģ": 3090,
      "æıĲåĩº": 3091,
      "åºĶçĶ¨ç¨ĭåºı": 3092,
      "çµ": 3093,
      "èİ·åıĸ": 3094,
      "é£ĺ": 3095,
      "éĿŀå¸¸å¥½": 3096,
      "åĽ°éļ¾": 3097,
      "è®°å½ķ": 3098,
      "çļĦçĶŁæ´»": 3099,
      "ä¸Ģä¸ªäºº": 3100,
      "åŃ¸": 3101,
      "éĢĲæ¸Ĳ": 3102,
      "åı¯æĮģç»Ń": 3103,
      "åĨĻä½ľ": 3104,
      "ran": 3105,
      "åĲ¹": 3106,
      "äº¤æµģ": 3107,
      "æª": 3108,
      "æı¡": 3109,
      "åĨĻä¸Ģä¸ª": 3110,
      "å¢ŀéķ¿": 3111,
      "è§ĦåĪĻ": 3112,
      "éĢĤåºĶ": 3113,
      "99": 3114,
      "åı¤è¯Ĺ": 3115,
      "è°Ī": 3116,
      "è¶³å¤Ł": 3117,
      "åĽ½éĻħ": 3118,
      "ä¸»äºº": 3119,
      "é£ŁæĿĲ": 3120,
      "æĢ»æĺ¯": 3121,
      "ï¼ļ```": 3122,
      "æľ¬æĸĩ": 3123,
      "æĦıåĳ³": 3124,
      "éĢ»": 3125,
      "one": 3126,
      "åħĶ": 3127,
      "ç¾İä¸½çļĦ": 3128,
      "è¯Ńè¨Ģæ¨¡åŀĭ": 3129,
      "Ġit": 3130,
      "æĻ¯çĤ¹": 3131,
      "ä¾Ĩ": 3132,
      "åĮĸçļĦ": 3133,
      "åģĩè®¾": 3134,
      "å·¦åı³": 3135,
      "æĿĳ": 3136,
      "è¿Ļå®¶": 3137,
      "æ°ı": 3138,
      "æĪ¿éĹ´": 3139,
      "è³": 3140,
      "Ġan": 3141,
      "ä¸įè¿ĩ": 3142,
      "èī²å½©": 3143,
      "Ġ/": 3144,
      "ä½łéľĢè¦ģ": 3145,
      "çļĦä»·æł¼": 3146,
      "å®ľ": 3147,
      "ill": 3148,
      "åĳ¨åĽ´": 3149,
      "æľĢå¤§": 3150,
      "Ġch": 3151,
      "åĲ¯": 3152,
      "å¤§èĩªçĦ¶": 3153,
      "æĿ°": 3154,
      "è¿½æ±Ĥ": 3155,
      "æĤ¨éľĢè¦ģ": 3156,
      "æĻ´": 3157,
      "ohn": 3158,
      "çĽ¸äºĴ": 3159,
      "å®Įåħ¨": 3160,
      "åĪ¶å®ļ": 3161,
      "æĭį": 3162,
      "çļĦæ£": 3163,
      "éº»": 3164,
      "æĶ¯ä»ĺ": 3165,
      "åĿı": 3166,
      "Ġ$": 3167,
      "çĶ°": 3168,
      "å¼¹": 3169,
      "è¿ŀæİ¥": 3170,
      "Ġpro": 3171,
      "æ£®æŀĹ": 3172,
      "çļĦç¬¬": 3173,
      "çļĦæ¦": 3174,
      "âĢĶâĢĶ": 3175,
      "æĦıæĢĿ": 3176,
      "Ġ[": 3177,
      "æĺİç¡®": 3178,
      "é©¾é©¶": 3179,
      "çĽ¸åĬł": 3180,
      "ĠN": 3181,
      "ä¸ĸçºª": 3182,
      "ord": 3183,
      "ç§°ä¸º": 3184,
      "ãĤ": 3185,
      "åĬłä¸Ĭ": 3186,
      "æµ·æ»©": 3187,
      "èįīèİĵ": 3188,
      "è½¬æį¢ä¸º": 3189,
      "æ¾": 3190,
      "æĸ°é²ľ": 3191,
      "ç»ŃåĨĻ": 3192,
      "åľ¨å®¶": 3193,
      "ç¼ĸåĨĻä¸Ģä¸ª": 3194,
      "éĢ»è¾ĳ": 3195,
      "ç¾İå¥½çļĦ": 3196,
      "æĺ¥å¤©": 3197,
      "èĪ¹": 3198,
      "éľĩ": 3199,
      "è£Ļ": 3200,
      "å¡ĳ": 3201,
      "èĸĦ": 3202,
      "çļĦç³ĸæŀľ": 3203,
      "éļľ": 3204,
      "éģį": 3205,
      "æĦıåĳ³çĿĢ": 3206,
      "ä¹¦ç±į": 3207,
      "æľīåĵªäºĽ": 3208,
      "ä¸»è¯Ń": 3209,
      "æ·±åĪ»": 3210,
      "è¹": 3211,
      "åİŁå§ĭ": 3212,
      "å¥³æĢ§": 3213,
      "æĢĢ": 3214,
      "é»ĺ": 3215,
      "æľīä¸Ģ": 3216,
      "ç»ķ": 3217,
      "çļĦæĭ": 3218,
      "ter": 3219,
      "ç»¼": 3220,
      "å¿Ļ": 3221,
      "æ¼Ķåĳĺ": 3222,
      "æĬķèµĦ": 3223,
      "åħ·ä½ĵçļĦ": 3224,
      "æĪĳéľĢè¦ģ": 3225,
      "ç»ĵåĲĪ": 3226,
      "è½½": 3227,
      "é¡µ": 3228,
      "åıĳå¸ĥ": 3229,
      "à¥": 3230,
      "ãĢģâĢľ": 3231,
      "æľīéĻĲ": 3232,
      "çªĹ": 3233,
      "è¯ĬæĸŃ": 3234,
      "çĭ¬çī¹çļĦ": 3235,
      "éªĳ": 3236,
      "23": 3237,
      "åĢĴåħ¥": 3238,
      "Ġne": 3239,
      "å®ģ": 3240,
      "nd": 3241,
      "Ð¾": 3242,
      "åľ£": 3243,
      "æĽ´å¥½çļĦ": 3244,
      "é¢ĦæĬ¥": 3245,
      "è¾¾åĪ°": 3246,
      "çļĦæııè¿°": 3247,
      "éŃĶæ³ķ": 3248,
      "åįł": 3249,
      "éĢĤéĩı": 3250,
      "å®ŀä½ĵ": 3251,
      "ci": 3252,
      "çĬ¯": 3253,
      "åı¯èĥ½æĺ¯": 3254,
      "åĬłå¼º": 3255,
      "éĥģ": 3256,
      "å®ĥæĺ¯": 3257,
      "çļĦæ¦Ĥ": 3258,
      "å®¾": 3259,
      "èĩªè¡Į": 3260,
      "è¥¿çıŃ": 3261,
      "è¥¿çıŃçīĻ": 3262,
      "éĿ©": 3263,
      "çĲĨè®º": 3264,
      "æľīè¶£çļĦ": 3265,
      "æĺ¾ç¤º": 3266,
      "æĹ¥å¸¸": 3267,
      "ç«ŀ": 3268,
      "Ġover": 3269,
      "æł·çļĦ": 3270,
      "æ¨¡å¼ı": 3271,
      "æ³ķåĽ½": 3272,
      "å°Ĩä¼ļ": 3273,
      "Ġen": 3274,
      "çİ°åľ¨è¯·ä½ł": 3275,
      "ä¸Ģç¯ĩæĸĩç«ł": 3276,
      "çĽ¸åħ³çļĦ": 3277,
      "åķĨä¸ļ": 3278,
      "çļĦæĬĢæľ¯": 3279,
      "å¤§å°ı": 3280,
      "èĤ¯": 3281,
      "å¾ĹäºĨ": 3282,
      "çĶµè¯Ŀ": 3283,
      "åĢį": 3284,
      "éĢĴ": 3285,
      "æĪĲéķ¿": 3286,
      "éģĵå¾·": 3287,
      "åĪ¶éĢł": 3288,
      "ç¬¬ä¸Ģä¸ª": 3289,
      "å§ĵ": 3290,
      "çļĦæİ¨": 3291,
      "åīĤ": 3292,
      "è£ħé¥°": 3293,
      "å¹³åĿĩåĢ¼": 3294,
      "åºĶè¯¥æĺ¯": 3295,
      "åĨł": 3296,
      "ç¡¬": 3297,
      "çĪ½": 3298,
      "ä¹łæĥ¯": 3299,
      "èĦ±": 3300,
      "ä¸Ģæľ¬": 3301,
      "æ·±åº¦åŃ¦ä¹ł": 3302,
      "æ·¡": 3303,
      "\"ï¼Į": 3304,
      "ä¼ĺåĮĸ": 3305,
      "æ¯«": 3306,
      "æ·ĭ": 3307,
      "å±ķçİ°": 3308,
      "æµ®": 3309,
      "500": 3310,
      "ç¤¾äº¤åªĴä½ĵ": 3311,
      "ak": 3312,
      "åł¡": 3313,
      "å°ıçĭĹ": 3314,
      "ä½łå¥½": 3315,
      "Ġcom": 3316,
      "èĳ¡èĲ": 3317,
      "èĳ¡èĲĦ": 3318,
      "28": 3319,
      "ç»ıè¿ĩ": 3320,
      "Ġi": 3321,
      "tal": 3322,
      "æľĢä½³": 3323,
      "èĴľ": 3324,
      "è¯º": 3325,
      "è¡¨è¾¾äºĨ": 3326,
      "åĳĪçİ°": 3327,
      "Ġà¤": 3328,
      "åħ¶æ¬¡": 3329,
      "è¯·ç»ĻæĪĳ": 3330,
      "ä¸ªæĢ§": 3331,
      "æıĲåıĸåĩº": 3332,
      "ag": 3333,
      "çļĦæĢĿ": 3334,
      "èĻ«": 3335,
      "âĦ": 3336,
      "ä»įçĦ¶": 3337,
      "æĢ¥": 3338,
      "çĥŁ": 3339,
      "æĸĩæľ¬ä¸ŃçļĦ": 3340,
      "æ´Ľ": 3341,
      "çļĦæīĭ": 3342,
      "ere": 3343,
      "åº¦åĴĮ": 3344,
      "è¯Ńåı¥": 3345,
      "ä¸įçŁ¥éģĵ": 3346,
      "æ¶Īè´¹": 3347,
      "å¤§éĩı": 3348,
      "åºĶå¯¹": 3349,
      "è¡¥": 3350,
      "ä¸Ģåı¥è¯Ŀ": 3351,
      "è¿Ļæľ¬ä¹¦": 3352,
      "èıľåįķ": 3353,
      "èĲ¥éĶĢ": 3354,
      "iz": 3355,
      "âĢĿãĢģâĢľ": 3356,
      "åŁ¹": 3357,
      "æĮĩä»¤": 3358,
      "æ°§åĮĸ": 3359,
      "æģ¶": 3360,
      "ç´«": 3361,
      "äºĴèģĶç½ĳ": 3362,
      "åıĺæĪĲ": 3363,
      "ä¸¥éĩį": 3364,
      "åı¯çĪ±": 3365,
      "å°ıæĺİæīĭ": 3366,
      "è©": 3367,
      "SO": 3368,
      "'s": 3369,
      "å°Ĩä»¥ä¸ĭåı¥åŃĲ": 3370,
      "ãĥ": 3371,
      "æ½ľ": 3372,
      "åĴĮåħ¶ä»ĸ": 3373,
      "âĦĥ": 3374,
      "è¿ª": 3375,
      "åĽ¾åĥı": 3376,
      "Th": 3377,
      "ä¹¡": 3378,
      "ä¼½": 3379,
      "åħĥéĴ±": 3380,
      "ä¸ĢæĿ¡": 3381,
      "èĬĿ": 3382,
      "éĽ·": 3383,
      "åıĤä¸İ": 3384,
      "è®¿": 3385,
      "ç¾Ĭ": 3386,
      "zy": 3387,
      "ç¾İçļĦ": 3388,
      "æ¦Ĥå¿µ": 3389,
      "å¹ķ": 3390,
      "çľŁæŃ£": 3391,
      "Ðµ": 3392,
      "çĶ¨çļĦ": 3393,
      "åĨĴéĻ©": 3394,
      "éľĢè¦ģæ³¨æĦı": 3395,
      "çļĦå¥½": 3396,
      "çļĦç©": 3397,
      "åı¹": 3398,
      "±ä¹Ĳ": 3399,
      "ä»Ķ": 3400,
      "å£®": 3401,
      "op": 3402,
      "rown": 3403,
      "ä¸ĭåįĪ": 3404,
      "ence": 3405,
      "èĦĤ": 3406,
      "å°ıåįİ": 3407,
      "åīįå¾Ģ": 3408,
      "ç©¿çĿĢ": 3409,
      "çĶŁéķ¿": 3410,
      "éĩįéĩı": 3411,
      "èĭ±åĽ½": 3412,
      "è·ĳæŃ¥": 3413,
      "æıĲä¾Ľä¸ĢäºĽ": 3414,
      "å´": 3415,
      "çļĦä¸Ģä¸ª": 3416,
      "è¯Ħä¼°": 3417,
      "ult": 3418,
      "æĥħç»ª": 3419,
      "ãĢĤãĢĬ": 3420,
      "çĬ¶åĨµ": 3421,
      "çªģçĦ¶": 3422,
      "ure": 3423,
      "å®Įæķ´": 3424,
      "å¸¸è§ģçļĦ": 3425,
      "ä¸Ģå®¶": 3426,
      "èĽĭçĻ½": 3427,
      "åħ«": 3428,
      "è¿Ľåħ¥": 3429,
      "æľºæŀĦ": 3430,
      "Ġè¾ĵåĩº": 3431,
      "ç»©": 3432,
      "date": 3433,
      "æľīæīĢ": 3434,
      "æĦıè¯Ĩ": 3435,
      "éĤ£éĩĮ": 3436,
      "æĺ¯ä¸Ģéĥ¨": 3437,
      "æĪĲæľ¬": 3438,
      "æįŁ": 3439,
      "åıĺæļĸ": 3440,
      "æģĴ": 3441,
      "çŃĸçķ¥": 3442,
      "æĶ¹è¿Ľ": 3443,
      "åįģåĪĨ": 3444,
      "ä¸Ģåħ±æľī": 3445,
      "é«ĺåħ´": 3446,
      "é¡¶": 3447,
      "æŁĲä¸ª": 3448,
      "éĥ½ä¼ļ": 3449,
      "èĢģå¸Ī": 3450,
      "æ²Ļæ»©": 3451,
      "åĮ»åŃ¦": 3452,
      "22": 3453,
      "è§¦": 3454,
      "èĴ¸": 3455,
      "Ġthat": 3456,
      "çļĦæĦŁè§ī": 3457,
      "åĢŁ": 3458,
      "ç»ĵè®º": 3459,
      "ç®Ģçº¦": 3460,
      "è¯·ä»İ": 3461,
      "çļĦé£Łçī©": 3462,
      "åħ¬åħ±": 3463,
      "ç»Ļä½ł": 3464,
      "ä¸ªæľĭåıĭ": 3465,
      "éŁ©": 3466,
      "äº¿": 3467,
      "ç¾İå¥½": 3468,
      "æĪĲä¸ºäºĨ": 3469,
      "å¹¶ä»¥": 3470,
      "éķľ": 3471,
      "èĥ¡": 3472,
      "æĶ»": 3473,
      "æĹ§": 3474,
      "å°¤": 3475,
      "åĳ¨æľ«": 3476,
      "æĢ»åħ±": 3477,
      "æĢ§èĥ½": 3478,
      "ç»ĦåĲĪ": 3479,
      "ä¸Ĭä¸ĭæĸĩ": 3480,
      "æĸ°éĹ»æĬ¥éģĵ": 3481,
      "æĺ¯çļĦ": 3482,
      "åĲĪçĲĨ": 3483,
      "åĩºèī²": 3484,
      "Ġhe": 3485,
      "Ġdate": 3486,
      "å±ĭ": 3487,
      "tot": 3488,
      "ç¿»è¯ĳæĪĲæ³ķè¯Ń": 3489,
      "ä¸ĢæĿ¯": 3490,
      "é«ĺæķĪ": 3491,
      "ç¬¬ä¸ī": 3492,
      "åľ¨çº¿": 3493,
      "de": 3494,
      "æĥł": 3495,
      "Ġme": 3496,
      "åĢ¾": 3497,
      "æĭ¼åĨĻ": 3498,
      "ç¿°": 3499,
      "ç§»åĬ¨": 3500,
      "è°ĵ": 3501,
      "çĬ¬": 3502,
      "pt": 3503,
      "åıªæĺ¯": 3504,
      "Ġtotal": 3505,
      "ç§įç±»": 3506,
      "æ®Ĭ": 3507,
      "å¯¸": 3508,
      "æīĢéľĢ": 3509,
      "æª¬": 3510,
      "å½¼": 3511,
      "å¯¿": 3512,
      "çĪ¬": 3513,
      "å½Ĵç±»": 3514,
      "ä»ĸåľ¨": 3515,
      "for": 3516,
      "łæª¬": 3517,
      "åĬ³": 3518,
      "åĶĲ": 3519,
      "èĭ¥": 3520,
      "çŁŃæĸĩ": 3521,
      "total": 3522,
      "æľĢé«ĺ": 3523,
      "ç½ª": 3524,
      "Ġwh": 3525,
      "{\"": 3526,
      "èªī": 3527,
      "è§Ĥä¼Ĺ": 3528,
      "å¾ªçİ¯": 3529,
      "ç¶": 3530,
      "åĵ²": 3531,
      "åĵģè´¨": 3532,
      "æĩĴ": 3533,
      "ia": 3534,
      "åįĸ": 3535,
      "çĭĲ": 3536,
      "ç¬¦åı·": 3537,
      "\",": 3538,
      "çĽ¸ä¿¡": 3539,
      "åı¯ä»¥çĶ¨": 3540,
      "çĽ¸åºĶ": 3541,
      "æıĲåįĩ": 3542,
      "åĩıåİ»": 3543,
      "ä¹ĭåĲİ": 3544,
      "ľä¼½": 3545,
      "æµªæ¼«": 3546,
      "åłĤ": 3547,
      "çļĦæ¸©": 3548,
      "è¿¹": 3549,
      "ä¸»ä¹ī": 3550,
      "å¤§å®¶": 3551,
      "å¸¦æĿ¥äºĨ": 3552,
      "çĶ·åŃ©": 3553,
      "çļĦåİĨåı²": 3554,
      "åĪĨåŃĲ": 3555,
      "å®¶äºº": 3556,
      "ä¹Łä¼ļ": 3557,
      "Ġcon": 3558,
      "æķ¬": 3559,
      "çļĦåĨħå®¹": 3560,
      "åºĨ": 3561,
      "ç¯®çĲĥ": 3562,
      "ÙĦ": 3563,
      "æī©": 3564,
      "ä½ĵèĤ²": 3565,
      "éķĩ": 3566,
      "è¿Ļå¼ł": 3567,
      "èĥŀ": 3568,
      "éĿ¢ä¸´": 3569,
      "éĿ¢ä¸Ĭ": 3570,
      "å¼łä¸ī": 3571,
      "çĽ®çļĦåľ°": 3572,
      "çĭ¸": 3573,
      "çļĦçŃĶæ¡Ī": 3574,
      "Ġquick": 3575,
      "çľŁçļĦ": 3576,
      "é½": 3577,
      "ine": 3578,
      "æµģçķħ": 3579,
      "Ġjum": 3580,
      "SON": 3581,
      "ry": 3582,
      "ãĢĭãĢĤ": 3583,
      "èĬ±åĽŃ": 3584,
      "è¯ĦåĪĨ": 3585,
      "ä¼ĺç§Ģ": 3586,
      "ç¼ºå¤±": 3587,
      "âĢ¦": 3588,
      "çĶ³": 3589,
      "Ġnum": 3590,
      "é»ĳèī²": 3591,
      "))": 3592,
      "æĹ¶æľŁ": 3593,
      "ell": 3594,
      "å°ıçĮ«": 3595,
      "å¦ĤæŃ¤": 3596,
      "ue": 3597,
      "å¤§æ°Ķ": 3598,
      "ight": 3599,
      "éĩįåĨĻ": 3600,
      "åĪĨéħį": 3601,
      "ç¨ĭåº¦": 3602,
      "å¿ĥæĥħ": 3603,
      "æķ¢": 3604,
      "æķ°åĪĹ": 3605,
      "ä¸ªæ©ĻåŃĲ": 3606,
      "éĺµ": 3607,
      "æĥħåĨµä¸ĭ": 3608,
      "æľĥ": 3609,
      "å¹¶ä¸į": 3610,
      "Ġ||": 3611,
      "æŁ¥è¯¢": 3612,
      "èį·": 3613,
      "è¿ĽæŃ¥": 3614,
      "å¿ħè¦ģ": 3615,
      "çļĦè®¾è®¡": 3616,
      "ook": 3617,
      "èĢĮä¸įæĺ¯": 3618,
      "å¹¶æıĲä¾Ľ": 3619,
      "çĭ¬ç«ĭ": 3620,
      "Ġor": 3621,
      "çº¦ç¿°": 3622,
      "åįļçī©": 3623,
      "èĤ¥": 3624,
      "åĬĽçļĦ": 3625,
      "image": 3626,
      "æĹ¶åħī": 3627,
      "å¼ºçĥĪ": 3628,
      "å¤ļæł·": 3629,
      "çľĭèµ·æĿ¥": 3630,
      "è¯ļ": 3631,
      "æĪĳæĹłæ³ķ": 3632,
      "æĤ²": 3633,
      "æ¡£": 3634,
      "\"ãĢĤ": 3635,
      "ä¸ĥ": 3636,
      "æ¼Ĥ": 3637,
      "å½¢å®¹è¯į": 3638,
      "à¯": 3639,
      "å¤ªç©º": 3640,
      "åĦ¿ç«¥": 3641,
      "åĪ°è¾¾": 3642,
      "å·Ŀ": 3643,
      "Ġbrown": 3644,
      "out": 3645,
      "çº¹": 3646,
      "çļĦæĢ§": 3647,
      "çļĦç»ĵæŀľ": 3648,
      "çļĦç¥": 3649,
      "æ¬£èµı": 3650,
      "æĻĤ": 3651,
      "çīĽèĤī": 3652,
      "è¿ĺéľĢè¦ģ": 3653,
      "æĺ¯ä¸ŃåĽ½": 3654,
      "æĮ¥": 3655,
      "çĻ¼": 3656,
      "çı¾": 3657,
      "çŃīé¢ĨåŁŁ": 3658,
      "çİ©åħ·": 3659,
      "çĪ¶": 3660,
      "Ġfox": 3661,
      "æĶ¶åħ¥": 3662,
      "ĽåĽ´": 3663,
      "ĠJSON": 3664,
      "ŁéĢļ": 3665,
      "äºĭçī©": 3666,
      "è°ĥæŁ¥": 3667,
      "Ġnull": 3668,
      "è§£åĨ³æĸ¹æ¡Ī": 3669,
      "éĹŃ": 3670,
      "ç»ĵæĿŁ": 3671,
      "æĳĩ": 3672,
      "å«": 3673,
      "èĢħçļĦ": 3674,
      "çĿĽ": 3675,
      "å½¢çĬ¶": 3676,
      "æŁłæª¬": 3677,
      "å¤ľæĻļ": 3678,
      "Ġas": 3679,
      "ous": 3680,
      "è®¾ç½®": 3681,
      "åİ¨": 3682,
      "èĩªè¡Įè½¦": 3683,
      "Ġinvoice": 3684,
      "invoice": 3685,
      "Ġlazy": 3686,
      "æīĵå¼Ģ": 3687,
      "æĢ»ä¹ĭ": 3688,
      "é£İæĻ¯": 3689,
      "çļĦæ¼": 3690,
      "çī¹æ®Ĭ": 3691,
      "æ£ī": 3692,
      "çŀ": 3693,
      "æĹ¢": 3694,
      "åŃĲéĩĮ": 3695,
      "éļĶ": 3696,
      "çļĦæ¸¸": 3697,
      "\\\\": 3698,
      "èĬ±è´¹": 3699,
      "å°ıæľĭåıĭ": 3700,
      "é¸£": 3701,
      "ï¼ļ'": 3702,
      "è¿Ĳç®Ĺ": 3703,
      "ng": 3704,
      "put": 3705,
      "å®¶å±ħ": 3706,
      "ext": 3707,
      "æĺ¯ä¸Ģä½į": 3708,
      "è°ĥåĳ³": 3709,
      "æģ©": 3710,
      "çļĦæ¬": 3711,
      "æĦīæĤ¦": 3712,
      "æľĢå¥½": 3713,
      "åħħæ»¡äºĨ": 3714,
      "æŁĶè½¯": 3715,
      "çĶŁåŃĺ": 3716,
      "çļĦç¼": 3717,
      "è§Ĥå¯Ł": 3718,
      "è§Ī": 3719,
      "çĭĲçĭ¸": 3720,
      "å¡ŀ": 3721,
      "æŁĲäºĽ": 3722,
      "çļĦéŁ³ä¹Ĳ": 3723,
      "æĪĳåľ¨": 3724,
      "ï¼ļãĢĬ": 3725,
      "çļĦæķ°æį®": 3726,
      "è¡«": 3727,
      "è¢ĸ": 3728,
      "åı¦ä¸Ģä¸ª": 3729,
      "rom": 3730,
      "é£ŀè¡Į": 3731,
      "çĶļ": 3732,
      "all": 3733,
      "70": 3734,
      "åĪĩæĪĲ": 3735,
      "éĿ¢å¯¹": 3736,
      "æĦīå¿«": 3737,
      "ä¸ģ": 3738,
      "éļĲç§ģ": 3739,
      "çļĦæ´»": 3740,
      "æıĲåĪ°äºĨ": 3741,
      "ç²Ĵ": 3742,
      "',": 3743,
      "åĴĮä¸Ģä¸ª": 3744,
      "éĿ¢æĸĻ": 3745,
      "art": 3746,
      "éĤ£äºĽ": 3747,
      "è´£ä»»": 3748,
      "ä¸»è§Ĵ": 3749,
      "å°ıé¸Ł": 3750,
      "æĹ¶ä»£": 3751,
      "æīĺ": 3752,
      "æĿĢ": 3753,
      "å¹¶è¾ĵåĩº": 3754,
      "æĪĳå¾Ī": 3755,
      "ä»¿ä½Ľ": 3756,
      "èİ«": 3757,
      "éĻĦè¿ĳ": 3758,
      "çĶŁæĢģç³»ç»Ł": 3759,
      "éĩįå¤į": 3760,
      "çļĦç¨": 3761,
      "å®īæİĴ": 3762,
      "å§ĵåĲį": 3763,
      "æĺŁçĲĥ": 3764,
      "çĲ´": 3765,
      "ange": 3766,
      "æĤł": 3767,
      "åĮºåŁŁ": 3768,
      "æĪĺäºī": 3769,
      "ç»ĻäºĨ": 3770,
      "åĲĥäºĨ": 3771,
      "æĢ»ç»Ł": 3772,
      "æŀĿ": 3773,
      "åĶ¯": 3774,
      "æ¡¥": 3775,
      "å¼ĢæĶ¾": 3776,
      "åįļçī©é¦Ĩ": 3777,
      "çº·": 3778,
      "èĦ¸": 3779,
      "è´¡": 3780,
      "ello": 3781,
      "äº¡": 3782,
      "é¸Ń": 3783,
      "åĨ¬åŃ£": 3784,
      "æ°Ķä½ĵ": 3785,
      "Ġpl": 3786,
      "ç¬¬äºĮä¸ª": 3787,
      "åĵ¦": 3788,
      "é¢Ħç®Ĺ": 3789,
      "éħĴåºĹ": 3790,
      "uc": 3791,
      "èģª": 3792,
      "orld": 3793,
      "çĺ": 3794,
      "çĪĨ": 3795,
      "æİ¥åıĹ": 3796,
      "ä¿Ŀè¯ģ": 3797,
      "ç¨³å®ļ": 3798,
      "æīĢåľ¨": 3799,
      "å¾ĹåĪ°äºĨ": 3800,
      "æī£": 3801,
      "è´¥": 3802,
      "çļĦåŁİå¸Ĥ": 3803,
      "çļĦéĢīæĭ©": 3804,
      "åıĺéĩı": 3805,
      "ç¢İ": 3806,
      "æĪĲåĪĨ": 3807,
      "ess": 3808,
      "35": 3809,
      "åı¤ä»£": 3810,
      "å¯Ĩçłģ": 3811,
      "æĪĳä»¬å°Ĩ": 3812,
      "éĻĲåĪ¶": 3813,
      "éģµ": 3814,
      "é¼ĵåĬ±": 3815,
      "å°Ĩä¸ĭéĿ¢": 3816,
      "Ġï¼Į": 3817,
      "æ¨¡æĭŁ": 3818,
      "ä¹Łæľī": 3819,
      "çļĦç½": 3820,
      "å¨±ä¹Ĳ": 3821,
      "ity": 3822,
      "è¡¨æ¼Ķ": 3823,
      "åŁĥ": 3824,
      "å®¶çļĦ": 3825,
      "ĠãĢĬ": 3826,
      "çĤ¸": 3827,
      "éĺ´": 3828,
      "ime": 3829,
      "åħ¨çĲĥåıĺæļĸ": 3830,
      "Ġex": 3831,
      "åıĬåħ¶": 3832,
      "Ð¸": 3833,
      "ç®Ģè¦ģ": 3834,
      "æ¸ħæĸ°": 3835,
      "åīª": 3836,
      "éĺ¶": 3837,
      "å»ºè®®æĤ¨": 3838,
      "é¸¡èĤī": 3839,
      "ave": 3840,
      "ç£¨": 3841,
      "æĻ¨": 3842,
      "ana": 3843,
      "ä»¥ç¡®ä¿Ŀ": 3844,
      "ore": 3845,
      "çļĦç©º": 3846,
      "è½»è½»": 3847,
      "ä¼ĺè´¨": 3848,
      "æ²Ļæĭī": 3849,
      "èĺ": 3850,
      "ä¸Ģå¼ł": 3851,
      "å¢Ļ": 3852,
      "èĬĴ": 3853,
      "æĭĤ": 3854,
      "çļĦç¤¾": 3855,
      "è´´": 3856,
      "åİŁçĲĨ": 3857,
      "å¤ıæĹ¥": 3858,
      "çĽ®çļĦ": 3859,
      "æħ§": 3860,
      "ç»Ĩèĥŀ": 3861,
      "çļĦæ±": 3862,
      "æķ°åĢ¼": 3863,
      "æĮĩåĩº": 3864,
      "çĳľä¼½": 3865,
      "åħĶåŃĲ": 3866,
      "èıľåĵģ": 3867,
      "å¼ĥ": 3868,
      "å°ıæĺİåĴĮ": 3869,
      "èĬ³": 3870,
      "è½¬åĮĸ": 3871,
      "æĸ¼": 3872,
      "èī¾": 3873,
      "ç²¾ç¥ŀ": 3874,
      "æĿ¥è®¡ç®Ĺ": 3875,
      "çļĦç²": 3876,
      "æ¸ħæ´ģ": 3877,
      "æİ¨çĲĨ": 3878,
      "çº¦ä¸º": 3879,
      "ud": 3880,
      "æķ¦": 3881,
      "åºĶçĶ¨äºİ": 3882,
      "éĻĨ": 3883,
      "åĲī": 3884,
      "åľ¨è¿Ļ": 3885,
      "ind": 3886,
      "è´¡çĮ®": 3887,
      "è§Ĩé¢ĳ": 3888,
      "python": 3889,
      "æĸĩç«łä¸Ń": 3890,
      "åŃĺåĤ¨": 3891,
      "èį£": 3892,
      "çī¹èī²": 3893,
      "æľĢåĸľæ¬¢çļĦ": 3894,
      "æĺİæĺ¾": 3895,
      "çĨĬçĮ«": 3896,
      "äºĨä¸Ģç§į": 3897,
      "åĨħå¿ĥ": 3898,
      "åĩºçĶŁ": 3899,
      "çļĦæĳĺè¦ģ": 3900,
      "éĩĮçļĦ": 3901,
      "åĲįä¸º": 3902,
      "ç»Ĵ": 3903,
      "å¸Ŀ": 3904,
      "åĨĻä¸Ģç¯ĩåħ³äºİ": 3905,
      "les": 3906,
      "æĢĿæĥ³": 3907,
      "å½Ĵç±»ä¸º": 3908,
      "åįķä½į": 3909,
      "æľªæĿ¥çļĦ": 3910,
      "NA": 3911,
      "ĠCh": 3912,
      "åħ³éĶ®ä¿¡æģ¯": 3913,
      "éĻ¤äºĨ": 3914,
      "com": 3915,
      "å²¸": 3916,
      "åĴĮæĸĩåĮĸ": 3917,
      "åı¯ä»¥å°Ĩ": 3918,
      "åĲ«æľī": 3919,
      "è§£éĩĬä¸Ģä¸ĭ": 3920,
      "æŃī": 3921,
      "çķĻä¸ĭ": 3922,
      "te": 3923,
      "ķèī²": 3924,
      "èģªæĺİ": 3925,
      "çļĦæĸ°": 3926,
      "æľĢå¥½çļĦ": 3927,
      "æĹ©é¤Ĳ": 3928,
      "Ġjumps": 3929,
      "åĽŀçŃĶä¸ĬéĿ¢": 3930,
      "éľľ": 3931,
      "è·ĥ": 3932,
      "åĽŀçŃĶä¸ĬéĿ¢çļĦéĹ®é¢ĺ": 3933,
      "åı¯ä»¥å¾ĹåĪ°": 3934,
      "ä¸Ģæ®µæĸĩæľ¬": 3935,
      "21": 3936,
      "ä¸ŃæĬ½åıĸ": 3937,
      "æĩĤ": 3938,
      "éĻ¤æ³ķ": 3939,
      "æī¬": 3940,
      "èĻļæĭŁ": 3941,
      "çļĦé¢ľèī²": 3942,
      "Ġlo": 3943,
      "()": 3944,
      "Ġse": 3945,
      "èĻİ": 3946,
      "éĢĢ": 3947,
      "ä¹Ķ": 3948,
      "éĤ£ä¸ª": 3949,
      "æĶ¿çŃĸ": 3950,
      "ä¸Ģéĥ¨": 3951,
      "ment": 3952,
      "åĲĮåŃ¦": 3953,
      "æĦıå¤§åĪ©éĿ¢": 3954,
      "æ¡ĥ": 3955,
      "äººæ°ĳ": 3956,
      "åĿĢ": 3957,
      "åĸľå¥½": 3958,
      "ç¤ºä¾ĭ": 3959,
      "è¿ĺåī©": 3960,
      "çļĦçĥŃ": 3961,
      "Ġal": 3962,
      "å½¢è±¡": 3963,
      "æŁ¥æī¾": 3964,
      "ä¹Ŀ": 3965,
      "éĢ²": 3966,
      "å·²çŁ¥": 3967,
      "éĽĦ": 3968,
      "è¿Ĳè¡Į": 3969,
      "ard": 3970,
      "æĺĵäºİ": 3971,
      "åľĪ": 3972,
      "æĤ¬": 3973,
      "áĢ": 3974,
      "çĶµåŃĲéĤ®ä»¶": 3975,
      "çºł": 3976,
      "èĤ´": 3977,
      "Ġ30": 3978,
      "ä¸Ģå¹´": 3979,
      "ä¸Ģéģĵ": 3980,
      "æİ¨èįĲä¸ĢäºĽ": 3981,
      "çļĦçĭĹ": 3982,
      "æľīéĻĲåħ¬åı¸": 3983,
      "çļĦæ·": 3984,
      "åľ°ä¸Ĭ": 3985,
      "æľĢæĸ°": 3986,
      "èı²": 3987,
      "æİ¨åĬ¨": 3988,
      "å»¶": 3989,
      "1000": 3990,
      "æ¸¯": 3991,
      "åıįä¹īè¯į": 3992,
      "åī§æĥħ": 3993,
      "æľĢå¤ļ": 3994,
      "æ°¸è¿ľ": 3995,
      "å®ļæľŁ": 3996,
      "è¯·æıĲä¾Ľ": 3997,
      "èħĲ": 3998,
      "æ³¨éĩį": 3999,
      "æķ°æĺ¯": 4000,
      "é£Łè°±": 4001,
      "æĿ¥è§£åĨ³": 4002,
      "çľĭåĪ°äºĨ": 4003,
      "36": 4004,
      "éħª": 4005,
      "çĶŁæĪĲä¸Ģç¯ĩ": 4006,
      "ç¨İ": 4007,
      "è¢«è®¤ä¸º": 4008,
      "æ»¡æĦı": 4009,
      "è¥¿çıŃçīĻè¯Ń": 4010,
      "ç¢Ĺ": 4011,
      "åĿļæĮģ": 4012,
      "ä»ĸæĥ³": 4013,
      "ä¹Łå°±æĺ¯": 4014,
      "è¯Ńæ³ķéĶĻè¯¯": 4015,
      "æĽ¼": 4016,
      "ä¸Ńæľī": 4017,
      "éĢĥ": 4018,
      "åĪĻæĺ¯": 4019,
      "çĶļèĩ³": 4020,
      "75": 4021,
      "çĭ®": 4022,
      "çĥ¹": 4023,
      "è¦Ĩ": 4024,
      "èį¯çī©": 4025,
      "æ´ĭèĳ±": 4026,
      "å¤ĸå¥Ĺ": 4027,
      "å¹½": 4028,
      "èī¯å¥½çļĦ": 4029,
      "æİĴæĶ¾": 4030,
      "æİĮæı¡": 4031,
      "ĠåĴĮ": 4032,
      "èĢĢ": 4033,
      "çĶŁæĪĲä¸Ģæ®µ": 4034,
      "å¹¶æ²¡æľī": 4035,
      "å¯»æ±Ĥ": 4036,
      "ç¥¨æį®": 4037,
      "çĦ¦èĻĳ": 4038,
      "è¯¢éĹ®": 4039,
      "åĲĪéĢĤçļĦ": 4040,
      "åĨħéĥ¨": 4041,
      "äººå·¥æĻºèĥ½åľ¨": 4042,
      "ç¼ĸéĢł": 4043,
      "Ð½": 4044,
      "èµ¢": 4045,
      "ä¸Ģä»¶": 4046,
      "ä»¥ä¸ĭåŃĹæ®µ": 4047,
      "çľĭçĶµå½±": 4048,
      "Ġwe": 4049,
      "è´¢åĬ¡": 4050,
      "ä¾§": 4051,
      "list": 4052,
      "çļĦåĢ¼": 4053,
      "ä¸ºä½ł": 4054,
      "çļĦæŀ": 4055,
      "åĵģå°Ŀ": 4056,
      "Ġmy": 4057,
      "ĠØ": 4058,
      "å¯¹æĸ¹": 4059,
      "åĵ²åŃ¦": 4060,
      "çģ°": 4061,
      "çĪ±å¥½": 4062,
      "ç§Ĵ": 4063,
      "ä¸įè¦ģç¼ĸéĢł": 4064,
      "åŃĹæ®µå¡«": 4065,
      "è¯·ä»İè¿Ļå¼ł": 4066,
      "å°¤åħ¶": 4067,
      "ç¼ºå¤±åŃĹæ®µå¡«": 4068,
      "ä¸ŃæĬ½åıĸä»¥ä¸ĭåŃĹæ®µ": 4069,
      "ç¥¨æį®ä¸ŃæĬ½åıĸä»¥ä¸ĭåŃĹæ®µ": 4070,
      "è¯·ä»İè¿Ļå¼łç¥¨æį®ä¸ŃæĬ½åıĸä»¥ä¸ĭåŃĹæ®µ": 4071,
      "è¯·ä»İè¿Ļå¼łç¥¨æį®ä¸ŃæĬ½åıĸä»¥ä¸ĭåŃĹæ®µå¹¶ä»¥": 4072,
      "John": 4073,
      "è·¯ä¸Ĭ": 4074,
      "ä¸¤ç§į": 4075,
      "iv": 4076,
      "èıĩ": 4077,
      "æĳĨ": 4078,
      "å¼Ģå¤´": 4079,
      "):": 4080,
      "æľŁéĹ´": 4081,
      "ä¸Ģçīĩ": 4082,
      "éĶĢåĶ®é¢Ŀ": 4083,
      "çļĦæ¼Ķ": 4084,
      "å¹´ä»½": 4085,
      "é¥ª": 4086,
      "è¿ħ": 4087,
      "å®ĥåı¯ä»¥": 4088,
      "ä½ĵéĩį": 4089,
      "ç»Łè®¡": 4090,
      "çļĦæĻº": 4091,
      "ne": 4092,
      "are": 4093,
      "åĪĨå¸ĥ": 4094,
      "èĽĭçĻ½è´¨": 4095,
      "Â°": 4096,
      "çĻ½èī²": 4097,
      "å±ı": 4098,
      "åŁºåĽł": 4099,
      "ä¸ºæĤ¨æıĲä¾Ľ": 4100,
      "ç¥ŀç»ıç½ĳç»ľ": 4101,
      "èİİ": 4102,
      "éł": 4103,
      "åıĬæĹ¶": 4104,
      "ÑĤ": 4105,
      "åįľ": 4106,
      "è§ĦåĪĴ": 4107,
      "å®¤åĨħ": 4108,
      "ust": 4109,
      "ãĢĮ": 4110,
      "ast": 4111,
      "ive": 4112,
      "çļĦäºĭæĥħ": 4113,
      "çĮª": 4114,
      "ä½¿çĶ¨äºĨ": 4115,
      "èĿ¶": 4116,
      "çļĦæĥ³": 4117,
      "åī¯": 4118,
      "æ¢ħ": 4119,
      "æĺİäºĨ": 4120,
      "åĮ¹": 4121,
      "åıĤæķ°": 4122,
      "èĢį": 4123,
      "è®²è¿°äºĨ": 4124,
      "æĹłéĻĲ": 4125,
      "çī©çĲĨåŃ¦": 4126,
      "çļĦæ¯ı": 4127,
      "æ¯ıäºº": 4128,
      "æ¶µ": 4129,
      "è¶ħå¸Ĥ": 4130,
      "æĹ¨åľ¨": 4131,
      "åĴ¨": 4132,
      "æľĢå¤§çļĦ": 4133,
      "çļĦæ´»åĬ¨": 4134,
      "ä¹Ļ": 4135,
      "ä»Ļ": 4136,
      "åºıåĪĹ": 4137,
      "ä¼Ĭ": 4138,
      "è´¦": 4139,
      "ä¼¼ä¹İ": 4140,
      "ç§¯æŀģçļĦ": 4141,
      "æ¶Ĥ": 4142,
      "ob": 4143,
      "é²¸": 4144,
      "æİ¥çĿĢ": 4145,
      "æĺ¯æĪĳ": 4146,
      "ãĢį": 4147,
      "ood": 4148,
      "æĪ´": 4149,
      "åıĤèĢĥ": 4150,
      "éĨī": 4151,
      "æ°ıåº¦": 4152,
      "æĳ©": 4153,
      "ä¸ŃæĢ§": 4154,
      "ä»ĭç»įäºĨ": 4155,
      "äººåı£": 4156,
      "åĵģç§į": 4157,
      "ç¼ĵè§£": 4158,
      "æĤ£èĢħ": 4159,
      "åĩıè½»": 4160,
      "äºĪ": 4161,
      "åĪĢ": 4162,
      "è¸ª": 4163,
      "æĴĴ": 4164,
      "åĴª": 4165,
      "åį§": 4166,
      "è¯·å¸®æĪĳ": 4167,
      "åº¦è¿ĩ": 4168,
      "ä¹Łå¾Ī": 4169,
      "MA": 4170,
      "ĠY": 4171,
      "åĳ¨éķ¿": 4172,
      "rac": 4173,
      "æıĲç¤º": 4174,
      "åĴ¨è¯¢": 4175,
      "ä¼¯": 4176,
      "ä¸ļåĬ¡": 4177,
      "éļ¾ä»¥": 4178,
      "é£ŁçĶ¨": 4179,
      "çļĦå°ıè¯´": 4180,
      "å®Ŀå®Ŀ": 4181,
      "ÑĢ": 4182,
      "ä¸Ģåľº": 4183,
      "ä¼Ł": 4184,
      "æķ´ä½ĵ": 4185,
      "Ġlike": 4186,
      "\"}": 4187,
      "èİ·å¾ĹäºĨ": 4188,
      "éĵ¶è¡Į": 4189,
      "Hello": 4190,
      "ä»¥ä¸ĭæĸĩæľ¬": 4191,
      "éŁµ": 4192,
      "æ·ĩ": 4193,
      "ä¼¦æķ¦": 4194,
      "è§Ĵåº¦": 4195,
      "æ¤ħ": 4196,
      "åĵĪåĪ©": 4197,
      "å¯Ĥ": 4198,
      "æĪĳå°Ĩ": 4199,
      "å¾®é£İ": 4200,
      "æĿĲè´¨": 4201,
      "æ·ĩæ·ĭ": 4202,
      "78": 4203,
      "èº«é«ĺ": 4204,
      "Ġby": 4205,
      "çļĦå·¥ä½ľ": 4206,
      "äººåľ¨": 4207,
      "å¤§çº¦": 4208,
      "33": 4209,
      "åĨ°æ·ĩæ·ĭ": 4210,
      "æĢķ": 4211,
      "èĬĿå£«": 4212,
      "é¤Ĳé¦Ĩ": 4213,
      "Ġnot": 4214,
      "ä¹ĺä»¥": 4215,
      "åıĺå¾ĹæĽ´åĬł": 4216,
      "çĶĺ": 4217,
      "çļĦæŃ¥": 4218,
      "æĹ¶éĹ´åĴĮ": 4219,
      "èĢĹ": 4220,
      "çİ©èĢį": 4221,
      "çļĦä¸»": 4222,
      "æĻĴ": 4223,
      "ish": 4224,
      "å°±åı¯ä»¥": 4225,
      "åľĨçļĦ": 4226,
      "This": 4227,
      "29": 4228,
      "çļĦæĮĩ": 4229,
      "éŃħ": 4230,
      "æĽ¾ç»ı": 4231,
      "å¸¸å¸¸": 4232,
      "å·®å¼Ĥ": 4233,
      "Ġä½ł": 4234,
      "ä¼ĳæģ¯": 4235,
      "åĩºçļĦ": 4236,
      "åĬĽåŃ¦": 4237,
      "çļĦæŃĮæĽ²": 4238,
      "26": 4239,
      "çĹħæ¯Ĵ": 4240,
      "åĬŀåħ¬": 4241,
      "çļĦéĩįè¦ģæĢ§": 4242,
      "æī¹": 4243,
      "åŃĲåĴĮ": 4244,
      "æŃ¦": 4245,
      "åĽ½å®¶": 4246,
      "æľªçŁ¥": 4247,
      "é¸Łç±»": 4248,
      "è¯¾ç¨ĭ": 4249,
      "à¹": 4250,
      "çŃīå¾ħ": 4251,
      "å¼ķåĬĽ": 4252,
      "é¥¼å¹²": 4253,
      "rt": 4254,
      "Ġä¸ª": 4255,
      "å®¡": 4256,
      "ãĢĭï¼Į": 4257,
      "æ½®æµģ": 4258,
      "èĤ¡ç¥¨": 4259,
      "çļĦçİ¯å¢ĥ": 4260,
      "å¹¶ç»Ļåĩº": 4261,
      "èģĬå¤©": 4262,
      "åıªèĥ½": 4263,
      "åĭķ": 4264,
      "åħ³éĶ®åŃĹ": 4265,
      "ap": 4266,
      "éļıæĹ¶": 4267,
      "äºĴåĬ¨": 4268,
      "çļĦæĦıä¹ī": 4269,
      "åıĹæ¬¢è¿İçļĦ": 4270,
      "urn": 4271,
      "æł¹æį®ç»Ļå®ļçļĦæĸĩæľ¬": 4272,
      "æĸ¤": 4273,
      "Ŀåįľ": 4274,
      "ain": 4275,
      "è·µ": 4276,
      "é³": 4277,
      "èĬ¬": 4278,
      "èĤł": 4279,
      "çľĭçľĭ": 4280,
      "åĨįæ¬¡": 4281,
      "èİ±": 4282,
      "çļĦè¯Ńè¨Ģ": 4283,
      "çĶŁç´ł": 4284,
      "çº½çº¦å¸Ĥ": 4285,
      "cm": 4286,
      "è¿Ľè¡ĮäºĨ": 4287,
      "å°Ĭéĩį": 4288,
      "æıĲéĨĴ": 4289,
      "æł¹æį®è¾ĵåħ¥": 4290,
      "æĬĢæľ¯çļĦ": 4291,
      "æĬ±æŃī": 4292,
      "å¹¶å°Ĩ": 4293,
      "ä¸¤ä¸ªåı¥åŃĲ": 4294,
      "åħ´å¥ĭ": 4295,
      "ä¹ĭå¤Ħ": 4296,
      "è¡¬": 4297,
      "çļĦç¾İå¥½": 4298,
      "èĦī": 4299,
      "åľ¨äºİ": 4300,
      "äº¤æĺĵ": 4301,
      "çħİ": 4302,
      "çī©ç§į": 4303,
      "27": 4304,
      "çĶŁæ´»ä¸Ń": 4305,
      "å½¼æŃ¤": 4306,
      "äºĨè®¸å¤ļ": 4307,
      "å¼±": 4308,
      "æĮĤ": 4309,
      "å§¿": 4310,
      "å®¶åħ·": 4311,
      "éķ¿çļĦ": 4312,
      "æııè¿°äºĨ": 4313,
      "é»ĳæļĹ": 4314,
      "ä½¿åħ¶æĽ´åĬł": 4315,
      "æĿ¥æºĲ": 4316,
      "åĲĦä¸ª": 4317,
      "ä¸Ĭæľī": 4318,
      "æįķ": 4319,
      "ä¹ı": 4320,
      "éĿŀå¸¸æĦŁè°¢": 4321,
      "ç¤¾åĮº": 4322,
      "çľŁå®ŀ": 4323,
      "æ¬²": 4324,
      "èĥ¸": 4325,
      "äº«çĶ¨": 4326,
      "Ġ25": 4327,
      "çłĶ": 4328,
      "ç«ŀäºī": 4329,
      "ä¿Ŀåģ¥": 4330,
      "Ġhave": 4331,
      "up": 4332,
      "è®°å¿Ĩ": 4333,
      "éĢĬ": 4334,
      "æĹ¶åĪ»": 4335,
      "ome": 4336,
      "åº¦åģĩ": 4337,
      "è²Į": 4338,
      "å¢¨": 4339,
      "è´¹çĶ¨": 4340,
      "çĮİ": 4341,
      "èİī": 4342,
      "è°ĵè¯Ń": 4343,
      "å¦Ĥä½ķåĪ¶ä½ľ": 4344,
      "ä¼łè¾¾": 4345,
      "ç»´æĬ¤": 4346,
      "éģİ": 4347,
      "ub": 4348,
      "ä¸°å¯ĮçļĦ": 4349,
      "å¦Īå¦Ī": 4350,
      "ç¿»è¯ĳä¸º": 4351,
      "å¯¼æ¼Ķ": 4352,
      "ç§Ł": 4353,
      "èıľèĤ´": 4354,
      "éģĩåĪ°äºĨ": 4355,
      "ç¦»å¼Ģ": 4356,
      "Ġcan": 4357,
      "ç»Ļå®ļçļĦæĸĩæľ¬": 4358,
      "æĭĽ": 4359,
      "ä»°": 4360,
      "çĪ¸": 4361,
      "å¸½": 4362,
      "ä¸ºä¸Ģä¸ª": 4363,
      "å°ıçļĦ": 4364,
      "åħ¬åĽŃéĩĮ": 4365,
      "æııè¿°ä¸Ģä¸ĭ": 4366,
      "å°±åĥı": 4367,
      "å®ŀè·µ": 4368,
      "æĮĩå®ļ": 4369,
      "èį¡": 4370,
      "oy": 4371,
      "ä¸ĭéĽ¨": 4372,
      "åŃ¦ä¹łåĴĮ": 4373,
      "çļĦæŃ£": 4374,
      "çļĦç½ĳ": 4375,
      "åĽĽä¸ª": 4376,
      "Ġæĺ¯": 4377,
      "çĶµå½±çļĦ": 4378,
      "åī©ä½Ļ": 4379,
      "å¿ĥçģµ": 4380,
      "null": 4381,
      ")```": 4382,
      "hone": 4383,
      "äººç±»çļĦ": 4384,
      "åį«çĶŁ": 4385,
      "åĩ¡": 4386,
      "çģŃ": 4387,
      "èĭ±æĸĩåı¥åŃĲ": 4388,
      "å¯¹è±¡": 4389,
      "éĩĮéĿ¢": 4390,
      "åĪł": 4391,
      "è¢«ç§°ä¸º": 4392,
      "ä¼łæĴŃ": 4393,
      "çļĦåİŁåĽł": 4394,
      "Ġ#": 4395,
      "èıĮ": 4396,
      "èĮ¨": 4397,
      "çĭĤ": 4398,
      "å°ıæĺİå®¶": 4399,
      "çļ®èĤ¤": 4400,
      "èħ»": 4401,
      "åĭĩæķ¢": 4402,
      "å¿§": 4403,
      "æł¼å¼ı": 4404,
      "éģĩåĪ°": 4405,
      "çļĦçĪ±æĥħ": 4406,
      "ä¸¾è¡Į": 4407,
      "èī¯å¥½": 4408,
      "æĪĲç»©": 4409,
      "åıĳæĮ¥": 4410,
      "æĶ¶éĽĨ": 4411,
      "çĶ·å£«": 4412,
      "èĴĤ": 4413,
      "æŁ¥çľĭ": 4414,
      "è§Ħå¾ĭ": 4415,
      "88": 4416,
      "æľīæ²¡æľī": 4417,
      "èĭĹ": 4418,
      "æıĴ": 4419,
      "çĳŀ": 4420,
      "é¦¨": 4421,
      "ä¼ĺåĬ¿": 4422,
      "åħħåĪĨ": 4423,
      "çĿ¡çľł": 4424,
      "åĽ¾ä¹¦": 4425,
      "æľīçļĦ": 4426,
      "Ġ100": 4427,
      "Ġat": 4428,
      "Â²": 4429,
      "åıĸåĨ³": 4430,
      "åĭĴ": 4431,
      "å°ĺ": 4432,
      "åıĸåĨ³äºİ": 4433,
      "å®īè£ħ": 4434,
      "å±±å³°": 4435,
      "æĭĶ": 4436,
      "çĶµæ±ł": 4437,
      "çĸĳéĹ®": 4438,
      "å¡ĳæĸĻ": 4439,
      "æĢĿç»´": 4440,
      "Ġint": 4441,
      "çģ¾å®³": 4442,
      "ple": 4443,
      "ä»ĸäºº": 4444,
      "æķ£æĸĩ": 4445,
      "è¿Ļå®¶é¤Ĳåİħ": 4446,
      "åģ¶æķ°": 4447,
      "çļĦæ¸¸æĪı": 4448,
      "AIè¯Ńè¨Ģæ¨¡åŀĭ": 4449,
      "å®Ĺ": 4450,
      "åĽŀå®¶": 4451,
      "Ñģ": 4452,
      "åĪ·": 4453,
      "ç»Ļå®ļä¸Ģç»Ħ": 4454,
      "åŃĹæ¯įé¡ºåºı": 4455,
      "èĮĥåĽ´åĨħ": 4456,
      "åį±éĻ©": 4457,
      "ä»ĭç»įä¸Ģä¸ĭ": 4458,
      "è¿Ļåıª": 4459,
      "å·¥èīº": 4460,
      "å¤ļå°ĳéĴ±": 4461,
      "çĳ°": 4462,
      "åı¯éĿł": 4463,
      "æĲº": 4464,
      "åı¯ä»¥è®©": 4465,
      "ace": 4466,
      "very": 4467,
      "ear": 4468,
      "èħ°": 4469,
      "å·¥ä¸ļ": 4470,
      "çıĤ": 4471,
      "çļĦçŁ¥": 4472,
      "çĶŁæĪĲä¸Ģé¦ĸ": 4473,
      "å·¨å¤§çļĦ": 4474,
      "ãĢĭï¼Ī": 4475,
      "çİ©å®¶": 4476,
      "æĪĲå°±": 4477,
      "è®¿éĹ®": 4478,
      "çļĦèĥ½åĬĽ": 4479,
      "èĥ¡æ¤Ĵ": 4480,
      "æĶ¹åĨĻ": 4481,
      "æĸľ": 4482,
      "æ²ŁéĢļ": 4483,
      "èĥģ": 4484,
      "ä¹ĭå¤ĸ": 4485,
      "æĢª": 4486,
      "æħ¢æħ¢": 4487,
      "è½¦è¾Ĩ": 4488,
      "åľŁè±Ĩ": 4489,
      "çļĦå¤©": 4490,
      "å¤§è±¡": 4491,
      "å®ģéĿĻ": 4492,
      "å°Ĩä»¥ä¸ĭæĸĩæľ¬": 4493,
      "é¹ħ": 4494,
      "æ²¿": 4495,
      "çĩķ": 4496,
      "æ¬§æ´²": 4497,
      "ï¼īãĢģ": 4498,
      "åİŁæĿ¥": 4499,
      "åĪºæ¿Ģ": 4500,
      "æ©ĺ": 4501,
      "ä½łä»¬": 4502,
      "çļĦçĻ": 4503,
      "ff": 4504,
      "çļĦçĮ": 4505,
      "Ħæ¦": 4506,
      "åĽ¾æ¡Ī": 4507,
      "é¬": 4508,
      "çļĦç²¾": 4509,
      "è®¤è¯Ĩ": 4510,
      "ç±»åŀĭçļĦ": 4511,
      "ä½¿åħ¶æĽ´": 4512,
      "æ»ļ": 4513,
      "Ħæ¦Ħ": 4514,
      "çļĦçľŁ": 4515,
      "æµ·è¾¹": 4516,
      "æµ´": 4517,
      "GP": 4518,
      "åĸľæ¬¢åĲĥ": 4519,
      "èĦı": 4520,
      "äºĨä¸ĢäºĽ": 4521,
      "æĪĳä¸į": 4522,
      "å¹¶å°Ĩåħ¶": 4523,
      "èĢĮæĺ¯": 4524,
      "å¿ĥä¸Ń": 4525,
      "è®¡ç®Ĺæľºç§ĳåŃ¦": 4526,
      "èĤ¯å®ļ": 4527,
      "48": 4528,
      "çļĦçī¹çĤ¹": 4529,
      "Ġam": 4530,
      "ç¦ģ": 4531,
      "str": 4532,
      "äººå·¥æĻºèĥ½çļĦ": 4533,
      "åı¯ä»¥æł¹æį®": 4534,
      "èĺĳ": 4535,
      "çļĦåĲįåŃĹ": 4536,
      "çº¤": 4537,
      "å¹´æĿ¥": 4538,
      "åĪĹè¡¨ä¸Ń": 4539,
      "å¨ģèĥģ": 4540,
      "çļĦä½įç½®": 4541,
      "æ£Ģæµĭ": 4542,
      "åģ¥åº·çļĦ": 4543,
      "å®£ä¼ł": 4544,
      "èĺĳèıĩ": 4545,
      "æ¶Īæŀģ": 4546,
      "Ġwas": 4547,
      "åĮºåĿĹ": 4548,
      "çļĦæģ": 4549,
      "è®¾æĸ½": 4550,
      "åı¯ä»¥éĢīæĭ©": 4551,
      "ork": 4552,
      "å¼Ł": 4553,
      "å²©": 4554,
      "è·¨": 4555,
      "éĥ¨éĹ¨": 4556,
      "è¯·çĶ¨": 4557,
      "ä¸Ģé¡¹": 4558,
      "é²ģ": 4559,
      "åĬłæ³ķ": 4560,
      "Ġ---": 4561,
      "ä¸»äººåħ¬": 4562,
      "æŀĦå»º": 4563,
      "è±ª": 4564,
      "å°½åı¯èĥ½": 4565,
      "å¼Ģå¿ĥ": 4566,
      "å°¼åħĭ": 4567,
      "ç¥ŀç§ĺçļĦ": 4568,
      "è¡Įé©¶": 4569,
      "éħįæĸĻ": 4570,
      "æłĩçŃ¾": 4571,
      "çĥ¤ç®±": 4572,
      "çļĦè¡Įä¸º": 4573,
      "æĸĩåĮĸåĴĮ": 4574,
      "é¢Ĩå¯¼": 4575,
      "è¿Ļéģĵ": 4576,
      "è¯Ńæ°Ķ": 4577,
      "åĸľçĪ±": 4578,
      "é¢Ħéĺ²": 4579,
      "ä¹ĭéĹ´çļĦåħ³ç³»": 4580,
      "æ¶īåıĬåĪ°": 4581,
      "çļĩ": 4582,
      "è£ģ": 4583,
      "ark": 4584,
      "rans": 4585,
      "åıĤè§Ĥ": 4586,
      "èĦĨ": 4587,
      "ä»Ĭå¹´": 4588,
      "çĥ¹é¥ª": 4589,
      "çļĦé£İæł¼": 4590,
      "åº¦çļĦ": 4591,
      "ï¼ļ[": 4592,
      "æ°´ä¸Ń": 4593,
      "åĪĹä¸¾": 4594,
      "å°±ä¼ļ": 4595,
      "åĩıæ³ķ": 4596,
      "åįĬå¾Ħ": 4597,
      "åĲ¬èµ·æĿ¥": 4598,
      "æĪĲåĳĺ": 4599,
      "å¥Ķ": 4600,
      "ä¾µ": 4601,
      "èĤĸ": 4602,
      "Ã¡": 4603,
      "æł¹æį®æłĩé¢ĺ": 4604,
      "ä¹°äºĨä¸Ģ": 4605,
      "åĽŀå¿Ĩ": 4606,
      "çīĽä»Ķ": 4607,
      "æľŁå¾ħ": 4608,
      "æİ¨åĩº": 4609,
      "ä¼ĺæĥł": 4610,
      "çĸ²": 4611,
      "çļĦæłĩé¢ĺ": 4612,
      "å½ĵä½ł": 4613,
      "çļĦç¾İä¸½": 4614,
      "æ³¢çī¹": 4615,
      "æī®": 4616,
      "è®¡ç®Ĺåĩº": 4617,
      "ç¤¼çī©": 4618,
      "ç¨į": 4619,
      "éĩĳå±ŀ": 4620,
      "**": 4621,
      "32": 4622,
      "å¼Ĺ": 4623,
      "ä¼ĺçĤ¹": 4624,
      "åį°è±¡": 4625,
      "åĨĻä¸Ģé¦ĸ": 4626,
      "æııç»ĺ": 4627,
      "ç¿ħ": 4628,
      "éĺ»": 4629,
      "éĵº": 4630,
      "åĲĽ": 4631,
      "æĪĳæĥ³çŁ¥éģĵ": 4632,
      "æĪĸåħ¶ä»ĸ": 4633,
      "æĻºæħ§": 4634,
      "æİ¨å¹¿": 4635,
      "é¡¾å®¢": 4636,
      "èĬĤå¥ı": 4637,
      "èī³": 4638,
      "å¥¶éħª": 4639,
      "ĠĠĠ": 4640,
      "çĹĩçĬ¶": 4641,
      "æĥ³è±¡": 4642,
      "çļĦåĬ¨çī©": 4643,
      "æĺİçĻ½": 4644,
      "çļĦæ³ķ": 4645,
      "Ùħ": 4646,
      "å£ģ": 4647,
      "Ġthis": 4648,
      "çļĦæĮĳæĪĺ": 4649,
      "çļĦä¸Ģç§į": 4650,
      "æµ¸": 4651,
      "è§£åĨ³éĹ®é¢ĺ": 4652,
      "èĿ´": 4653,
      "çĶ¨åĵģ": 4654,
      "ava": 4655,
      "ç¾½": 4656,
      "æķıæį·": 4657,
      "oc": 4658,
      "apple": 4659,
      "èĿ´èĿ¶": 4660,
      "æĥľ": 4661,
      "ç»¼åĲĪ": 4662,
      "ç»´çĶŁç´ł": 4663,
      "éĶħä¸Ń": 4664,
      "æĸ¹ç¨ĭå¼ı": 4665,
      "pl": 4666,
      "ÃĹ": 4667,
      "åĨ¥": 4668,
      "å·¨å¤§": 4669,
      "å¦¹": 4670,
      "çļĦç«": 4671,
      "31": 4672,
      "ç´¯": 4673,
      "æĸĩæ¡ĪçĶŁæĪĲ": 4674,
      "åªļ": 4675,
      "day": 4676,
      "è¿Ŀ": 4677,
      "æī°": 4678,
      "ä¸Ģåı¥": 4679,
      "å¤¹": 4680,
      "æľīè®¸å¤ļ": 4681,
      "å¤§åľ°": 4682,
      "ç«¹": 4683,
      "æ©Ħæ¦Ħ": 4684,
      "æ¼Ĥäº®": 4685,
      "300": 4686,
      "åĵªç§į": 4687,
      "æĺ¯è°ģ": 4688,
      "è¯¥æĸĩæľ¬": 4689,
      "åĭĩæ°Ķ": 4690,
      "å¤ĸè§Ĥ": 4691,
      "çļĦæ¶": 4692,
      "çļĦç¿": 4693,
      "èĸ¯": 4694,
      "æł¹æį®æıĲä¾Ľ": 4695,
      "å®ŀçĶ¨": 4696,
      "ä»Ĭå¤©å¤©æ°Ķ": 4697,
      "çļĦéķ¿åº¦": 4698,
      "éªĮè¯ģ": 4699,
      "éķ¿æľŁ": 4700,
      "æĴ°": 4701,
      "èº«å¿ĥ": 4702,
      "åħĭçļĦ": 4703,
      "èĴĻ": 4704,
      "%ãĢĤ": 4705,
      "pple": 4706,
      "èĢģé¼ł": 4707,
      "åį³ä½¿": 4708,
      "ide": 4709,
      "ç¡®è®¤": 4710,
      "èº«ä»½": 4711,
      "Ġsh": 4712,
      "çļĦåŁºæľ¬": 4713,
      "æľīçĤ¹": 4714,
      "æĪĳä»¬åºĶè¯¥": 4715,
      "åķĨåºĹ": 4716,
      "è§Ħå®ļ": 4717,
      "çİ»": 4718,
      "éĢĤå½ĵçļĦ": 4719,
      "è°Ĭ": 4720,
      "æĮĩçļĦæĺ¯": 4721,
      "è¹Ī": 4722,
      "çļĦèĬ±": 4723,
      "åĮĸåĴĮ": 4724,
      "åħ±æľī": 4725,
      "çļĦæ£ķèī²": 4726,
      "Ġest": 4727,
      "å§ľ": 4728,
      "åĽłä¸ºå®ĥä»¬": 4729,
      "199": 4730,
      "åĲĪåĲĮ": 4731,
      "ä»£åħ¥": 4732,
      "æĹģ": 4733,
      "ä¸ºä»¥ä¸ĭ": 4734,
      "çĽŁ": 4735,
      "èĤª": 4736,
      "è°ľ": 4737,
      "è§Ĥçľĭ": 4738,
      "èĦĤèĤª": 4739,
      "áŁ": 4740,
      "åħīçº¿": 4741,
      "çļĦä¸ĸçķĮ": 4742,
      "çļĦéĴ±": 4743,
      "çļĦçĹ": 4744,
      "ä½ľå®¶": 4745,
      "æ¸¸å®¢": 4746,
      "å¼¦": 4747,
      "æģĭ": 4748,
      "è¢«è®¤ä¸ºæĺ¯": 4749,
      "åºŁ": 4750,
      "éĻ¶": 4751,
      "è¯Ŀé¢ĺ": 4752,
      "èĩªä¿¡": 4753,
      "è§£çŃĶ": 4754,
      "Ġfrom": 4755,
      "55": 4756,
      "åľĭ": 4757,
      "åı«åģļ": 4758,
      "ç»ĻæĪĳä¸Ģä¸ª": 4759,
      "ä¸ĢåĪĩ": 4760,
      "åľ¨è¿ĻéĩĮ": 4761,
      "çļĦçľ¼": 4762,
      "ĠãĢĤ": 4763,
      "æŁľ": 4764,
      "éĸĭ": 4765,
      "è½¬åĮĸä¸º": 4766,
      "ib": 4767,
      "éĩĳé¢Ŀ": 4768,
      "çĭ®åŃĲ": 4769,
      "ä¹±": 4770,
      "çĻĮ": 4771,
      "çļĦæŃ¥éª¤": 4772,
      "iP": 4773,
      "turn": 4774,
      "Ã·": 4775,
      "2019": 4776,
      "åı¤èĢģ": 4777,
      "èĪŀè¹Ī": 4778,
      "og": 4779,
      "éĻ·": 4780,
      "æ¡Ĩ": 4781,
      "çĶľçĤ¹": 4782,
      "port": 4783,
      "ong": 4784,
      "çļĦæĥħåĨµä¸ĭ": 4785,
      "çļĦçĬ": 4786,
      "æİ¢è®¨äºĨ": 4787,
      "æĳĦæ°ıåº¦": 4788,
      "å°Ĩåľ¨": 4789,
      "çĴĥ": 4790,
      "ach": 4791,
      "Ġâ": 4792,
      "åıĳåĩº": 4793,
      "éĺ²æŃ¢": 4794,
      "ä¸ĭéĻį": 4795,
      "åı¯ä»¥æĺ¯": 4796,
      "åľ°åĿĢ": 4797,
      "åľ°çĲĥçļĦ": 4798,
      "ies": 4799,
      "åĲĪå¹¶": 4800,
      "åĪłéĻ¤": 4801,
      "æ³Ĭ": 4802,
      "éĺĶ": 4803,
      "æ¯Ķä¾ĭ": 4804,
      "çī¹å®ļçļĦ": 4805,
      "æ»¤": 4806,
      "ä¸īç§į": 4807,
      "èµ°äºĨ": 4808,
      "æ´Ĵ": 4809,
      "è·¯çº¿": 4810,
      "çļĦé¦ĸ": 4811,
      "ould": 4812,
      "çļĦç¾İé£Ł": 4813,
      "çļĦä¹¦": 4814,
      "çļĦæŁ": 4815,
      "æĬĵ": 4816,
      "åıĳæĺİ": 4817,
      "åİŁåŃĲ": 4818,
      "æĹĭå¾ĭ": 4819,
      "é¦Ī": 4820,
      "æ¯ıæ¬¡": 4821,
      "çĶŁæĪĲä¸Ģä»½": 4822,
      "ä¼łéĢĴ": 4823,
      "ack": 4824,
      "åħ·å¤ĩ": 4825,
      "åĢ¼å¾Ĺä¸Ģ": 4826,
      "éĿ¢ç²ī": 4827,
      "åİŁæĸĩ": 4828,
      "æĮĩå¯¼": 4829,
      "åĪĨæŀĲåĴĮ": 4830,
      "ÙĬ": 4831,
      "ä¸ŃéĢīæĭ©": 4832,
      "çļĦåĲįç§°": 4833,
      "å·¾": 4834,
      "çİ«": 4835,
      "è¦ĨçĽĸ": 4836,
      "å¦Ĩ": 4837,
      "anana": 4838,
      "çļĦåħ³ç³»": 4839,
      "èĤĮèĤī": 4840,
      "å®Įç¾İ": 4841,
      "ÙĨ": 4842,
      "ä¹Łä¸į": 4843,
      "å¤§åŀĭ": 4844,
      "ä¿Ŀæļĸ": 4845,
      "çļĦæ¢": 4846,
      "çļĦåħ·ä½ĵ": 4847,
      "æĪĳæİ¨èįĲ": 4848,
      "èĥ¡èĲ": 4849,
      "çŁ¥åĲį": 4850,
      "èĥ¡èĲĿåįľ": 4851,
      "ä¸¹": 4852,
      "çļĦåĲ«ä¹ī": 4853,
      "å¤§éĩıçļĦ": 4854,
      "çĥĤ": 4855,
      "æ¯ķ": 4856,
      "ph": 4857,
      "çļĦåŁºç¡Ģ": 4858,
      "å®½æĿ¾": 4859,
      "çļĦç¥ŀ": 4860,
      "åĮºåĿĹéĵ¾": 4861,
      "å¦Ĥä½ķåľ¨": 4862,
      "èĢĥè¯ķ": 4863,
      "å°ıæĺİåĴĮå°ıçº¢": 4864,
      "éĢıæ°Ķ": 4865,
      "çļĦæĶ¯": 4866,
      "çŁ¿": 4867,
      "æĢ»çļĦ": 4868,
      "Ġ13": 4869,
      "åı¯æĮģç»Ńåıĳå±ķ": 4870,
      "çİ«çĳ°": 4871,
      "åĩĿ": 4872,
      "ä¸ĭä¸Ģä¸ª": 4873,
      "Ġ16": 4874,
      "æĪĳæĥ³è¦ģ": 4875,
      "éĩĬæĶ¾": 4876,
      "æ¶Īè´¹èĢħ": 4877,
      "åŃĶ": 4878,
      "åŃ¦ä¼ļ": 4879,
      "åĪ©æ¶¦": 4880,
      "èµĭ": 4881,
      "æĶ¯ç¬Ķ": 4882,
      "çļĦè¿ĩç¨ĭ": 4883,
      "ä¸Ĭåįĩ": 4884,
      "æĢİæł·": 4885,
      "çļĦæ£ķèī²çĭĲçĭ¸": 4886,
      "å¹³åĿĩåĪĨç»Ļ": 4887,
      "æĢİä¹Īæł·": 4888,
      "åİ¨æĪ¿": 4889,
      "çļĦçŁ¥è¯Ĩ": 4890,
      "å¯Įæľī": 4891,
      "çļĦè´¨éĩı": 4892,
      "ä½ĨæĪĳ": 4893,
      "æĴŀ": 4894,
      "å¦Ĥæŀľä½łæĥ³": 4895,
      "åŀ«": 4896,
      "Ġ×": 4897,
      "åĬ©æīĭ": 4898,
      "vel": 4899,
      "çļĦæĹ¥": 4900,
      "åı¯ä»¥èĢĥèĻĳ": 4901,
      "æĸ°æ¬¾": 4902,
      "áĥ": 4903,
      "å¹´ä»£": 4904,
      "æī¾åĪ°äºĨ": 4905,
      "èĻ¾": 4906,
      "ä»ª": 4907,
      "åĽŀçŃĶè¿Ļä¸ªéĹ®é¢ĺ": 4908,
      "ç£ģ": 4909,
      "çİ»çĴĥ": 4910,
      "åį«æĺŁ": 4911,
      "èĥ½ä¸įèĥ½": 4912,
      "ä¸īè§Ĵå½¢": 4913,
      "Ġ19": 4914,
      "è½¨": 4915,
      "æĦŁåħ´è¶£": 4916,
      "Ġ18": 4917,
      "rand": 4918,
      "åĨľä¸ļ": 4919,
      "å¾·åĽ½": 4920,
      "è¿ħéĢŁ": 4921,
      "æķ°åŃ¦éĹ®é¢ĺ": 4922,
      "æ¯ĶèµĽä¸Ń": 4923,
      "æŁ¿": 4924,
      "æŀĦæĪĲ": 4925,
      "èĭ±æĸĩæĸĩæľ¬": 4926,
      "ning": 4927,
      "è¿ĻæĦıåĳ³çĿĢ": 4928,
      "æııè¿°ä¸Ģä¸ª": 4929,
      "æ³°åĿ¦": 4930,
      "çĶ·åŃĲ": 4931,
      "å¦Ĥæŀľä½łåĸľæ¬¢": 4932,
      "æĮĳ": 4933,
      "ä»¥ä¸ĭéĹ®é¢ĺ": 4934,
      "éĥ½åľ¨": 4935,
      "ase": 4936,
      "Ġres": 4937,
      "æĺİåªļ": 4938,
      "æİ¨æĸŃ": 4939,
      "ä¼Ļ": 4940,
      "å®¾è¯Ń": 4941,
      "å¯¹åºĶ": 4942,
      "ä¸ľäº¬": 4943,
      "é«Ķ": 4944,
      "è¯Ĺäºº": 4945,
      "å°ıçº¢æľī": 4946,
      "æĺ¯æľĢ": 4947,
      "æł¹æį®æīĢ": 4948,
      "èĬĤæĹ¥": 4949,
      "è¿ĲçĶ¨": 4950,
      "æĸ°åŀĭ": 4951,
      "ä¸İåħ¶ä»ĸ": 4952,
      "è±¡å¾ģ": 4953,
      "æĸĳ": 4954,
      "ä¼¸": 4955,
      "åıĭè°Ĭ": 4956,
      "çĲĥåĳĺ": 4957,
      "æ³¥": 4958,
      "æľīæķĪåľ°": 4959,
      "åĴĮæ°´": 4960,
      "çº¢æ¥¼": 4961,
      "Ġgo": 4962,
      "å¥½çľĭ": 4963,
      "åĲĪçī©": 4964,
      "æ²Ļåıĳ": 4965,
      "èº«ä½ĵåģ¥åº·": 4966,
      "çļĦæ°Ķæģ¯": 4967,
      "è¯·è¾ĵåħ¥": 4968,
      "é£ŀæľº": 4969,
      "çļĦæ¦Ĥå¿µ": 4970,
      "çļĦåħ³éĶ®": 4971,
      "éĻª": 4972,
      "å¸¦æľī": 4973,
      "æĶ¹ä¸º": 4974,
      "æīĵåį°": 4975,
      "ite": 4976,
      "åį°åº¦": 4977,
      "ç´§å¼ł": 4978,
      "å°¼åħĭåı·": 4979,
      "æĽ´æĸ°": 4980,
      "éŃħåĬĽ": 4981,
      "èĤº": 4982,
      "æķ°æį®çļĦ": 4983,
      "çļĦåŃ£èĬĤ": 4984,
      "åł´": 4985,
      "å¼ºè°ĥäºĨ": 4986,
      "å»ºè®¾": 4987,
      "æ»´": 4988,
      "ber": 4989,
      "åĸ»": 4990,
      "åķĨåĬ¡": 4991,
      "èĥľåĪ©": 4992,
      "æİ¢éĻ©": 4993,
      "çĽ¸çŃī": 4994,
      "è¯ģæĺİ": 4995,
      "ä½łä¼ļ": 4996,
      "çļĦæĥ³æ³ķ": 4997,
      "è¿ĩåº¦": 4998,
      "åĪĽä½ľä¸Ģé¦ĸ": 4999,
      "è¾ħ": 5000,
      "å¿ł": 5001,
      "å¤ļçļĦ": 5002,
      "å¦ĩ": 5003,
      "æ³°åĿ¦å°¼åħĭåı·": 5004,
      "çļĦæ¸ħ": 5005,
      "Ð¾Ð": 5006,
      "æĺ¯éĿŀå¸¸": 5007,
      "éĩįçĤ¹": 5008,
      "çļĦæ¨": 5009,
      "äº§çĶŁäºĨ": 5010,
      "ÙĪ": 5011,
      "åłĨ": 5012,
      "so": 5013,
      "å¤®": 5014,
      "æ¢¨": 5015,
      "åıł": 5016,
      "æĭľ": 5017,
      "Ġåħĥ": 5018,
      "å¿½": 5019,
      "æĺ¯ä¸ĢåĲį": 5020,
      "æ±Ĥè§£": 5021,
      "å¤ªéĺ³èĥ½": 5022,
      "è§Ħæ¨¡": 5023,
      "ï¼ī-": 5024,
      "äººå¿ĥ": 5025,
      "ãĢĤ'": 5026,
      "æ®ĸ": 5027,
      "åĮ»çĸĹä¿Ŀåģ¥": 5028,
      "çļĦä¸Ģéĥ¨åĪĨ": 5029,
      "è¯ŃéŁ³è¯ĨåĪ«": 5030,
      "åħµ": 5031,
      "æĻ¶": 5032,
      "ç¿ł": 5033,
      "å¸®æĪĳæĥ³": 5034,
      "au": 5035,
      "åĲĮæł·": 5036,
      "æ¸©é¦¨": 5037,
      "çĸ«æĥħ": 5038,
      "åĬłçĥŃ": 5039,
      "ä¸Ńæĸĩç¿»è¯ĳ": 5040,
      "ĠK": 5041,
      "éĥ½åı¯ä»¥": 5042,
      "æĢ»çļĦæĿ¥è¯´": 5043,
      "ç§įæ¤į": 5044,
      "çļĦæµģ": 5045,
      "å±ķå¼Ģ": 5046,
      "çĶ»éĿ¢": 5047,
      "çļĦæĽ": 5048,
      "åıĸå¾Ĺ": 5049,
      "é¦Ļæ¸¯": 5050,
      "çļĦç¼ĸ": 5051,
      "ä»ģ": 5052,
      "æŀļ": 5053,
      "ä½įæķ°": 5054,
      "...": 5055,
      "é¢Ī": 5056,
      "åºĨç¥Ŀ": 5057,
      "æĪĳä»¬åı¯ä»¥çĶ¨": 5058,
      "æµĵéĥģ": 5059,
      "çĽĪ": 5060,
      "äºİæĺ¯": 5061,
      "éĢģç»Ļ": 5062,
      "è·³è¿ĩ": 5063,
      "ä¹Į": 5064,
      "ç»ĻæĪĳæİ¨èįĲ": 5065,
      "çº¢æ¥¼æ¢¦": 5066,
      "æıŃ": 5067,
      "ç©Ĩ": 5068,
      "èĢĮè¨Ģ": 5069,
      "åľ¨åĵªéĩĮ": 5070,
      "çº¢èī²çļĦ": 5071,
      "çĬ¹": 5072,
      "é¹¿": 5073,
      "è®²ä¸Ģä¸ª": 5074,
      "çļĦéľĢæ±Ĥ": 5075,
      "æĸĩæ¡£": 5076,
      "éŃĤ": 5077,
      "è±ĨèħĲ": 5078,
      "æĪĲç«ĭ": 5079,
      "é¢Ħè®¢": 5080,
      "æĻ®éĢļ": 5081,
      "æĻ´æľĹ": 5082,
      "å©´": 5083,
      "çļĦé£İéĻ©": 5084,
      "æĲħæĭĮåĿĩåĮĢ": 5085,
      "æŃ»äº¡": 5086,
      "åľ¨ç»Ļå®ļçļĦ": 5087,
      "æİĪ": 5088,
      "æŃ£å¼ı": 5089,
      "èĩªåĬ¨é©¾é©¶": 5090,
      "çŁ©": 5091,
      "éĢļå¸¸æĺ¯": 5092,
      "æ¥ļ": 5093,
      "è¾£æ¤Ĵ": 5094,
      "æĿ¥å®ŀçİ°": 5095,
      "æŃ£å¸¸": 5096,
      "æĪĳæ²¡æľī": 5097,
      "æ¼ł": 5098,
      "ä»Ĭå¤©æĺ¯": 5099,
      "å±ħæ°ĳ": 5100,
      "èģļä¼ļ": 5101,
      "ä½ľä¸ºä¸Ģä¸ª": 5102,
      "éī": 5103,
      "æĪĳè®¤ä¸º": 5104,
      "åĪ¶æĪĲ": 5105,
      "åıĸåĩº": 5106,
      "å®¤æ°Ķä½ĵ": 5107,
      "çļĦæł¸": 5108,
      "ä¸Ĭè¿°": 5109,
      "åıįé¦Ī": 5110,
      "çĽĨ": 5111,
      "æ¡¶": 5112,
      "æľĪä»½": 5113,
      "æ¯«åįĩ": 5114,
      "ĠThe": 5115,
      "é¸ŁåĦ¿": 5116,
      "äººä½ĵ": 5117,
      "åľºåĲĪ": 5118,
      "å¤©çĦ¶": 5119,
      "å½±çīĩ": 5120,
      "ip": 5121,
      "è¯·åĽŀçŃĶ": 5122,
      "æłĩå¿Ĺ": 5123,
      "çĲĨè§£åĴĮ": 5124,
      "çľ¼çĿĽ": 5125,
      "ä¿Ĺ": 5126,
      "è¯´è¯Ŀ": 5127,
      "ç¶ĵ": 5128,
      "çŃīå¼ı": 5129,
      "åĮºåĪ«": 5130,
      "æķ°åŃĹçļĦ": 5131,
      "æĺ¯åĲ¦æľī": 5132,
      "å¾ĹåĪĨ": 5133,
      "è¢«å¹¿æ³Ľ": 5134,
      "çīĪæľ¬": 5135,
      "34": 5136,
      "ä¼ĺéĽħ": 5137,
      "æī®æ¼Ķ": 5138,
      "çļĦæľįåĬ¡": 5139,
      "ä¿®èº«": 5140,
      "çıŃçº§": 5141,
      "ä¸įè¶ħè¿ĩ": 5142,
      "éĿ¢æĿ¡": 5143,
      "çĤ¹ç¬¦åı·": 5144,
      "æĢĸ": 5145,
      "æ°¢": 5146,
      "æµħ": 5147,
      "åĮĻ": 5148,
      "ç»Ĩèħ»": 5149,
      "çļĦä½¿çĶ¨": 5150,
      "éĨĭ": 5151,
      "èįĴ": 5152,
      "é£İåĲ¹": 5153,
      "åĶ¯ä¸Ģ": 5154,
      "çļĦæ·±": 5155,
      "ç§ĭåŃ£": 5156,
      "ä¸ĢçĤ¹": 5157,
      "æĵİ": 5158,
      "2018": 5159,
      "è¿Ļæł·çļĦ": 5160,
      "åĽ¾ä¹¦é¦Ĩ": 5161,
      "à¯į": 5162,
      "å¤§å¤ļ": 5163,
      "å°¼äºļ": 5164,
      "å¤ķ": 5165,
      "èµĸ": 5166,
      "å¹¶è§£éĩĬ": 5167,
      "ä¿ĿéĻ©": 5168,
      "åĴĮç¤¾ä¼ļ": 5169,
      "åĮ»éĻ¢": 5170,
      "æ¢¦æĥ³": 5171,
      "able": 5172,
      "åı¤åħ¸": 5173,
      "çļĦæıĲ": 5174,
      ".âĢĿ": 5175,
      "è®©äººä»¬": 5176,
      "ich": 5177,
      "æĸĩä»¶": 5178,
      "è´Ńçī©æ¸ħåįķ": 5179,
      "å¥½äºĨ": 5180,
      "çģ«è½¦": 5181,
      "æĦŁåĪ°éĿŀå¸¸": 5182,
      "èĩªåĬ¨åĮĸ": 5183,
      "GPT": 5184,
      "åºĦ": 5185,
      "ä¿ĿçķĻ": 5186,
      "Ġso": 5187,
      "é¼»": 5188,
      "è§Ĩä¸º": 5189,
      "æľīä¸ĢäºĽ": 5190,
      "ath": 5191,
      "çļĦæķ°åŃĹ": 5192,
      "ç¼ºä¹ı": 5193,
      "çĬ¯ç½ª": 5194,
      "åħ¨éĿ¢": 5195,
      "ass": 5196,
      "éī´": 5197,
      "å¾Ĵ": 5198,
      "á»": 5199,
      "æľĢå°ı": 5200,
      "Ġtr": 5201,
      "æķ´éĻ¤": 5202,
      "çĽĹ": 5203,
      "è¿Ļç»Ħ": 5204,
      "å¯¹åħ¶": 5205,
      "Ġyour": 5206,
      "ç½©": 5207,
      "åĩºçİ°äºĨ": 5208,
      "åĨ¬å¤©": 5209,
      "çļĦé«ĺ": 5210,
      "æ³ī": 5211,
      "é¢ĳçİĩ": 5212,
      "æĸĩæĺİ": 5213,
      "Ġ11": 5214,
      "çģµæ´»": 5215,
      "æ©Ħæ¦Ħæ²¹": 5216,
      "éĥ½èĥ½": 5217,
      "æĺİäº®": 5218,
      "æŀģç«¯": 5219,
      "çļĦæ°ĽåĽ´": 5220,
      "åĪĨæķ°": 5221,
      "èĩªèº«": 5222,
      "æľĢæĸ°çļĦ": 5223,
      "ç¾İå¦Ļ": 5224,
      "ä¸ĩçī©": 5225,
      "ç¾İåĳ³çļĦ": 5226,
      "åĴĮå¹³": 5227,
      "éģŃ": 5228,
      "å¼ķæĵİ": 5229,
      "æĶ»åĩ»": 5230,
      "ç¨¿": 5231,
      "åĽŀå½Ĵ": 5232,
      "éĿ¢åĽ¢": 5233,
      "æĪĳä»¬åı¯ä»¥ä½¿çĶ¨": 5234,
      "åĪĨåĪ«æĺ¯": 5235,
      "å®¿": 5236,
      "å¾Į": 5237,
      "è¯ķåĽ¾": 5238,
      "å¯¹è¯ĿåĨħå®¹": 5239,
      "éľĢè¦ģæ³¨æĦıçļĦæĺ¯": 5240,
      "æĪĳåĢĳ": 5241,
      "Ġä»ĸ": 5242,
      "çļĦåĬĽéĩı": 5243,
      "éĶģ": 5244,
      "éĤĢ": 5245,
      "å¥¶æ²¹": 5246,
      "çļĦåıĺåĮĸ": 5247,
      "çļĦå®īåħ¨": 5248,
      "å°ıçĲĥ": 5249,
      "æŃĮè¯į": 5250,
      "åĨłåĨĽ": 5251,
      "å²ģæľĪ": 5252,
      "çļĦæ¢¦": 5253,
      "æł¹æį®ç»Ļå®ļ": 5254,
      "ï¼ģâĢĿ": 5255,
      "ary": 5256,
      "èĽĩ": 5257,
      "éŀĭåŃĲ": 5258,
      "çļĦç¨ĭ": 5259,
      "åħħè¶³": 5260,
      "è°Ĳ": 5261,
      "ç¿Ķ": 5262,
      "æłĩè®°": 5263,
      "è®¤çŁ¥": 5264,
      "ä¼ŀ": 5265,
      "å½ĵæĹ¶": 5266,
      "çĶ·æĢ§": 5267,
      "ç»³": 5268,
      "ç»ĻæĤ¨": 5269,
      "äºĴçĽ¸": 5270,
      "å¤§åĨĻ": 5271,
      "è¯·ä¸ºæĪĳ": 5272,
      "åĪĺ": 5273,
      "éģ¥": 5274,
      "çļĦæ°´æŀľ": 5275,
      "èĩªä¸»": 5276,
      "æĢ»æķ°": 5277,
      "150": 5278,
      "æĿī": 5279,
      "ç»Ļäºº": 5280,
      "çļĦèĭ¹æŀľ": 5281,
      "åľ¨æľªæĿ¥": 5282,
      "åĲ¬åĪ°": 5283,
      "åı¦ä¸Ģ": 5284,
      "æ±¤å§Ĩ": 5285,
      "çļĦçĿ": 5286,
      "ç»µ": 5287,
      "æĳĺ": 5288,
      "èĭ±éĽĦ": 5289,
      "æĺŁæĺŁ": 5290,
      "çļĦçŁŃæĸĩ": 5291,
      "æľĢåĸľæ¬¢": 5292,
      "æĴĳ": 5293,
      "Tom": 5294,
      "æľįè£ħ": 5295,
      "å¯Ĩåº¦": 5296,
      "ç¼ĺ": 5297,
      "æĥ³æ³ķ": 5298,
      "çĥŃæĥħ": 5299,
      "ake": 5300,
      "èĭ±å°º": 5301,
      "è¿ĺæľīåħ¶ä»ĸ": 5302,
      "è®¾è®¡ä¸Ģä¸ª": 5303,
      "æ°§æ°Ķ": 5304,
      "ä¸ĢäºĽåħ³äºİ": 5305,
      "çķªèĮĦéħ±": 5306,
      "æĺ¯ç¾İåĽ½": 5307,
      "å¤©æ°Ķé¢ĦæĬ¥": 5308,
      "ĠSt": 5309,
      "çº¤ç»´": 5310,
      "å£¤": 5311,
      "æĪĳè¦ģ": 5312,
      "çĽ¸åıį": 5313,
      "è£¡": 5314,
      "åħĭæľį": 5315,
      "å¨ľ": 5316,
      "çļĦæĻºèĥ½": 5317,
      "åľ¨æŃ¤": 5318,
      "æľĢä½İ": 5319,
      "ä¸ĵæ³¨": 5320,
      "Ġï¼Ī": 5321,
      "åĩ¯": 5322,
      "ä¼ĺç¾İ": 5323,
      "åĸľåī§": 5324,
      "æłĳåı¶": 5325,
      "æĽ´å®¹æĺĵ": 5326,
      "å¾Īæľī": 5327,
      "åīįæĻ¯": 5328,
      "åĲĦåľ°": 5329,
      "çĥ¦": 5330,
      "ä½¿çĶ¨çļĦ": 5331,
      "æ³½": 5332,
      "ä¾£": 5333,
      "çļĦæłĳ": 5334,
      "å¼Ĥå¸¸": 5335,
      "åıĸå¾ĹäºĨ": 5336,
      "èħ¾": 5337,
      "èľľèľĤ": 5338,
      "äºĨä»Ģä¹Ī": 5339,
      "å±ıå¹ķ": 5340,
      "çļĦéĺ³åħī": 5341,
      "æĪĲä¸Ģä¸ª": 5342,
      "å®ļå¾ĭ": 5343,
      "çīĪåŀĭ": 5344,
      "ä¸įéľĢè¦ģ": 5345,
      "å¼ºå¤§": 5346,
      "ä¿®æŃ£": 5347,
      "ä¸ªæľĪ": 5348,
      "è¿Ļæ®µæĸĩåŃĹ": 5349,
      "Ã³": 5350,
      "ä¾¿åĪ©": 5351,
      "èĥ¶": 5352,
      "----": 5353,
      "å°ĳå¹´": 5354,
      "67": 5355,
      "å®£å¸ĥ": 5356,
      "ä½ĵç§¯": 5357,
      "å¥ĩæķ°": 5358,
      "è³½": 5359,
      "è¿Ļé¡¹": 5360,
      "åĸ·": 5361,
      "æ¼«æŃ¥": 5362,
      "è°·æŃĮ": 5363,
      "ÏĢ": 5364,
      "å£³": 5365,
      "åŁİå¸ĤçļĦ": 5366,
      "è¯ĨåĪ«åĩº": 5367,
      "ç²¾èĩ´": 5368,
      "DNA": 5369,
      "æľīæľº": 5370,
      "éĢĨ": 5371,
      "éĽ¾": 5372,
      "çĽ®çļĦæĺ¯": 5373,
      "ĠChin": 5374,
      "æīĵéĢł": 5375,
      "ç»Īäºİ": 5376,
      "çĶŁåĬ¨": 5377,
      "åħįçĸ«": 5378,
      "åľ¨è¿Ļä¸ªåı¥åŃĲä¸Ń": 5379,
      "æķıæį·çļĦæ£ķèī²çĭĲçĭ¸": 5380,
      "åľ°åĽ¾": 5381,
      "çĵ£": 5382,
      "Ġè®¡ç®Ĺ": 5383,
      "æł¹æį®é¢ĺçĽ®": 5384,
      "ä¿¡ä»»": 5385,
      "åĨįçĶŁ": 5386,
      "åį¢": 5387,
      "ç©·": 5388,
      "è¿ĺèĥ½": 5389,
      "çł´åĿı": 5390,
      "çİ¯å¢ĥä¿ĿæĬ¤": 5391,
      "å®ŀæĹ¶": 5392,
      "éĴ¢çĲ´": 5393,
      "åı·çłģ": 5394,
      "è¿Ľå±ķ": 5395,
      "input": 5396,
      "èĩªçĦ¶çģ¾å®³": 5397,
      "åĭĥ": 5398,
      "'t": 5399,
      "è´¸": 5400,
      "éģĵè·¯": 5401,
      "ĠæĬĬ": 5402,
      "æľºåĪ¶": 5403,
      "éĸĵ": 5404,
      "æ®ĭ": 5405,
      "åĲ¸æĶ¶": 5406,
      "åģıå¥½": 5407,
      "Ø±": 5408,
      "è°ĥèĬĤ": 5409,
      "åħ¶ä¸ŃåĮħæĭ¬": 5410,
      "æĳĦåħ¥": 5411,
      "åĴĮå°ı": 5412,
      "åĩºçīĪ": 5413,
      "ä¸īè§Ĵå½¢çļĦ": 5414,
      "Ġlove": 5415,
      "éĢĻåĢĭ": 5416,
      "iel": 5417,
      "æĺ¯åħ³äºİ": 5418,
      "ä¸įå¤ª": 5419,
      "æł¹æį®ä»¥ä¸ĭæĸĩæľ¬": 5420,
      "ä¸Ģç³»åĪĹ": 5421,
      "çļĦç¬ĳ": 5422,
      "Ġab": 5423,
      "ĠU": 5424,
      "çļĦå£°éŁ³": 5425,
      "ä¿¡åı·": 5426,
      "ä¸¦": 5427,
      "åıªè¦ģ": 5428,
      "ç»´æĮģ": 5429,
      "Ġ50": 5430,
      "za": 5431,
      "ç³Ĭ": 5432,
      "Ġad": 5433,
      "ä½©": 5434,
      "æĦŁåĴĮ": 5435,
      "å°½åĬĽ": 5436,
      "æĺ¾å¾Ĺ": 5437,
      "æĸ¹å½¢": 5438,
      "çĲĥéĺŁ": 5439,
      "æĸ¯åĿ¦": 5440,
      "é½Ĳ": 5441,
      "ĠV": 5442,
      "åī²": 5443,
      "æµĭéĩı": 5444,
      "ç¢į": 5445,
      "èĵĿèī²çļĦ": 5446,
      "ä»İå°ı": 5447,
      "äººä»¬çļĦ": 5448,
      "çļĦéĢŁåº¦": 5449,
      "æııåĨĻ": 5450,
      "è¿Ļæĺ¯åĽłä¸º": 5451,
      "ction": 5452,
      "åĪ«äºº": 5453,
      "åĳĪçİ°åĩº": 5454,
      "æĸ¹éĿ¢çļĦ": 5455,
      "éĢĹ": 5456,
      "çĤī": 5457,
      "ç¨®": 5458,
      "å¯ĵ": 5459,
      "çĳŁ": 5460,
      "ç¾İæĻ¯": 5461,
      "çĺ¦": 5462,
      "è¿Ļä¸ªäºº": 5463,
      "åľºæīĢ": 5464,
      "Ġmo": 5465,
      "éĹľ": 5466,
      "æł¹éĵħç¬Ķ": 5467,
      "çĭ¼": 5468,
      "çĶŁæ´»æĸ¹å¼ı": 5469,
      "Ġhas": 5470,
      "è´ŁéĿ¢å½±åĵį": 5471,
      "per": 5472,
      "ĠØ§": 5473,
      "ä¹ŁéĿŀå¸¸": 5474,
      "åħĥçļĦ": 5475,
      "à´": 5476,
      "åĲįè¨Ģ": 5477,
      "Ġes": 5478,
      "æĻ¯è§Ĥ": 5479,
      "è¡¬è¡«": 5480,
      "å¸ħ": 5481,
      "åı£åı·": 5482,
      "çĽ¸åºĶçļĦ": 5483,
      "ä½ĵçļĦ": 5484,
      "åĩłä¸ªèĭ¹æŀľ": 5485,
      "çļĦæ¤": 5486,
      "ç¢§": 5487,
      "è®²è¿°äºĨä¸Ģä¸ª": 5488,
      "çī¹æĢ§": 5489,
      "æĺĵæĩĤ": 5490,
      "åģ¥åº·é¥®é£Ł": 5491,
      "ç®ĢçŁŃçļĦ": 5492,
      "åĴĮæľįåĬ¡": 5493,
      "äº§åĵģçļĦ": 5494,
      "def": 5495,
      "appy": 5496,
      "ä»ĸä»¬åľ¨": 5497,
      "Java": 5498,
      "ial": 5499,
      "çŁ¶": 5500,
      "æľĪçĲĥ": 5501,
      "æļĤ": 5502,
      "ç®Ģä»ĭ": 5503,
      "æĪĳæĺ¯": 5504,
      "ä¸Ńå¤®": 5505,
      "è¯ģæį®": 5506,
      "æĬ¹": 5507,
      "æ¯ıå¹´": 5508,
      "èľĤèľľ": 5509,
      "åľ¨å®¶éĩĮ": 5510,
      "ransl": 5511,
      "è»": 5512,
      "è¾ŀ": 5513,
      "çļĦå¤©æ°Ķé¢ĦæĬ¥": 5514,
      "åĨ¥æĥ³": 5515,
      "Ġworld": 5516,
      "çļĦçĿ¡": 5517,
      "åĴĮæĥħæĦŁ": 5518,
      "æµģç¨ĭ": 5519,
      "æĢ§åĪ«": 5520,
      "æĦģ": 5521,
      "åįģå¹´": 5522,
      "çĽĲåĴĮ": 5523,
      "gle": 5524,
      "Ġå°ı": 5525,
      "æĺ¯å¦Ĥä½ķ": 5526,
      "ä¸įè¶³": 5527,
      "ä¹ĭä¸Ń": 5528,
      "è¿Ľè¡ĮæĥħæĦŁ": 5529,
      "åıĭå¥½": 5530,
      "æºª": 5531,
      "éŁ©çīĪ": 5532,
      "ä¿Ŀéļľ": 5533,
      "äºĭæķħ": 5534,
      "æĪ°": 5535,
      "èĨĢ": 5536,
      "åı¥åŃĲçļĦ": 5537,
      "å¯ĴåĨ·": 5538,
      "ä¹ĺæ³ķ": 5539,
      "çļĦæİĴ": 5540,
      "iPhone": 5541,
      "æĦŁæŁĵ": 5542,
      "è¥¿çº¢": 5543,
      "çļĦæĦŁåıĹ": 5544,
      "è£Ĥ": 5545,
      "é¢Ĺç³ĸ": 5546,
      "æĵ¦": 5547,
      "éĻĪè¿°åı¥": 5548,
      "çİĽä¸½": 5549,
      "æ¶µçĽĸ": 5550,
      "çļĦç¿»": 5551,
      "å¤§çĨĬçĮ«": 5552,
      "ma": 5553,
      "è¿ĳå¹´æĿ¥": 5554,
      "ä¸¤äºº": 5555,
      "çĮľ": 5556,
      "å¯¿åĳ½": 5557,
      "è¥¿çº¢æŁ¿": 5558,
      "ire": 5559,
      "åļ": 5560,
      "å®ŀæĸ½": 5561,
      "å¤įåı¤": 5562,
      "è®©äººæĦŁåĪ°": 5563,
      "è´§å¸ģ": 5564,
      "èģĮä½į": 5565,
      "èµİ": 5566,
      "ä¸Ģåħ±æľīå¤ļå°ĳ": 5567,
      "ä¸ºç»Ļå®ļçļĦ": 5568,
      "åįİçĽĽ": 5569,
      "åĩºéĹ¨": 5570,
      "å®¶æĹı": 5571,
      "åįĹæŀģ": 5572,
      "åľĨå½¢": 5573,
      "89": 5574,
      "æ´»åĬĽ": 5575,
      "äºĮæ°§åĮĸ": 5576,
      "ï¼ļ$": 5577,
      "å¤§èĦĳ": 5578,
      "éķ¿æĹ¶éĹ´": 5579,
      "ese": 5580,
      "ç©¿è¶Ĭ": 5581,
      "åĴĮæľĭåıĭ": 5582,
      "åĩºåıĳ": 5583,
      "èīºæľ¯å®¶": 5584,
      "Ġsu": 5585,
      "åįİçĽĽé¡¿": 5586,
      "è¿Ļåº§": 5587,
      "å®īéĿĻ": 5588,
      "æĺĨ": 5589,
      "åĩºè¡Į": 5590,
      "æĸĩæľ¬ä¸ŃæıĲåıĸ": 5591,
      "è¿Ł": 5592,
      "è´¾": 5593,
      "æ¯Ķäºļ": 5594,
      "åħīèĬĴ": 5595,
      "äº¤äºĴ": 5596,
      "çĽ¸ä¼¼åº¦": 5597,
      "å·¥ç¨ĭå¸Ī": 5598,
      "çļĦæł¸å¿ĥ": 5599,
      "é¢ĨåŁŁçļĦ": 5600,
      "è¿Ļä½į": 5601,
      "æł¹æį®æıĲä¾ĽçļĦ": 5602,
      "åŀĤ": 5603,
      "çļĦçĮ«": 5604,
      "2000": 5605,
      "56": 5606,
      "ä»ĸåĢĳ": 5607,
      "å¸Ĥä¸Ńå¿ĥ": 5608,
      "åĩºåİ»": 5609,
      "æĽ´åĩĨç¡®": 5610,
      "éĺĲ": 5611,
      "èĬĤçĽ®": 5612,
      "ä¸ªåįķè¯į": 5613,
      "å¾Īå¥½çļĦ": 5614,
      "åı¯èĥ½çļĦ": 5615,
      "çıįæĥľ": 5616,
      "ä»¥ä¸ĭæĺ¯ä¸Ģä¸ª": 5617,
      "äº§ä¸ļ": 5618,
      "ä¸ŃåĽ½çļĦ": 5619,
      "æĪ·å¤ĸæ´»åĬ¨": 5620,
      "çĶµåĬ¨": 5621,
      "å¤įæĿĤçļĦ": 5622,
      "çĤİçĥŃ": 5623,
      "æĿīçŁ¶": 5624,
      "åīĳ": 5625,
      "éĢļå¸¸ä¼ļ": 5626,
      "æĤī": 5627,
      "è®ĵ": 5628,
      "ç¼ĸç¨ĭè¯Ńè¨Ģ": 5629,
      "å°Ĭæķ¬": 5630,
      "àª": 5631,
      "æ©¡": 5632,
      "å§Ĳ": 5633,
      "å¹²åĩĢ": 5634,
      "å°Ĩç»Ļå®ļçļĦ": 5635,
      "èĤ©": 5636,
      "åľŁå£¤": 5637,
      "æģ¢": 5638,
      "è¾ĵåĩºç»ĵæŀľ": 5639,
      "æİĺ": 5640,
      "èĪį": 5641,
      "åĽ½åĨħ": 5642,
      "ä¸ºä¸»": 5643,
      "ç¿»è¯ĳæĪĲè¥¿çıŃçīĻè¯Ń": 5644,
      "è¯¸": 5645,
      "å°ĸ": 5646,
      "èµĦæĸĻ": 5647,
      "çĻ¾æĲŃ": 5648,
      "èĨľ": 5649,
      "å¹³æĸ¹ç±³": 5650,
      "æĽ´ä¸º": 5651,
      "å¿ĥåĴĮ": 5652,
      "æ¬¡æķ°": 5653,
      "çİĭæĺŁ": 5654,
      "ik": 5655,
      "åĴĮæĮĳæĪĺ": 5656,
      "è¯·æ±Ĥ": 5657,
      "æµ·å¹³": 5658,
      "è°¢è°¢ä½ł": 5659,
      "çļĦæ²Ļ": 5660,
      "Ġnew": 5661,
      "æĺ¯åĽłä¸º": 5662,
      "çģ«æĺŁ": 5663,
      "æ¡ĮåŃĲ": 5664,
      "æ©ĺåŃĲ": 5665,
      "å¹¶è¿Ľè¡Į": 5666,
      "è¼": 5667,
      "æľīæķĪçļĦ": 5668,
      "Ð»": 5669,
      "çĶ¨éĢĶ": 5670,
      "æĬµ": 5671,
      "2020": 5672,
      "ÃŃ": 5673,
      "çļĦä¸ĢäºĽ": 5674,
      "æĽ´å¿«": 5675,
      "æķĳèµİ": 5676,
      "åĴĮè°Ĳ": 5677,
      "è®¯": 5678,
      "éĢļä¿¡": 5679,
      "èĪĩ": 5680,
      "æµ·æµª": 5681,
      "æģĴæĺŁ": 5682,
      "çĦ¶åĲİå°Ĩ": 5683,
      "éĽĨä¸Ń": 5684,
      "è®¨è®ºäºĨ": 5685,
      "éĿŀæ´²": 5686,
      "çĮ«åĴª": 5687,
      "ä¸ĢåĢĭ": 5688,
      "æīİ": 5689,
      "å®ĥåľ¨": 5690,
      "ee": 5691,
      "ç·": 5692,
      "ä½ĵçİ°": 5693,
      "ä¸įæĸŃåľ°": 5694,
      "æĩī": 5695,
      "æ¢°": 5696,
      "å¾®ç¬ĳ": 5697,
      "å¹´è½»çļĦ": 5698,
      "çĸ«èĭĹ": 5699,
      "àº": 5700,
      "çļĦæ©": 5701,
      "å±±èĦī": 5702,
      "éģµå®Ī": 5703,
      "åľ°éľĩ": 5704,
      "éĺ³åħīæĺİåªļ": 5705,
      "æĹłäºº": 5706,
      "æĭ¼åĨĻéĶĻè¯¯": 5707,
      "èĤĸçĶ³": 5708,
      "æ§": 5709,
      "ĠåĬłåħ¥": 5710,
      "æĪĳéĿŀå¸¸": 5711,
      "åĮĸåĲĪçī©": 5712,
      "æĽ¿æį¢ä¸º": 5713,
      "AP": 5714,
      "à¤¾": 5715,
      "å¸¦çĿĢ": 5716,
      "æ´ĽæĿīçŁ¶": 5717,
      "çļĦæ¨¡": 5718,
      "ä¼ı": 5719,
      "æľĪäº®": 5720,
      "å©´åĦ¿": 5721,
      "çļĦåĳ³éģĵ": 5722,
      "åĬ¨åĬĽ": 5723,
      "åħĪçĶŁ": 5724,
      "çļĦæĢģ": 5725,
      "æľºåľº": 5726,
      "æģĲæĢĸ": 5727,
      "ä»¥æĿ¥": 5728,
      "å¤§æķ°æį®": 5729,
      "æģ¤": 5730,
      "åľ¨ä»¥ä¸ĭ": 5731,
      "çĿ£": 5732,
      "åĮĹæŀģ": 5733,
      "çļĦçĿ¡çľł": 5734,
      "44": 5735,
      "æµĨ": 5736,
      "æĻºèĥ½å®¶å±ħ": 5737,
      "çļĦæĥħèĬĤ": 5738,
      "ä½łèĥ½å¸®æĪĳ": 5739,
      "çļĦçĬ¶": 5740,
      "ect": 5741,
      "çŃĽ": 5742,
      "è¯·æ³¨æĦı": 5743,
      "éĺ¿çĶĺ": 5744,
      "è¯Ńæ³ķåĴĮ": 5745,
      "æĴĴä¸Ĭ": 5746,
      "æıĲåĩºäºĨ": 5747,
      "åģ·": 5748,
      "éĤ£ä¹Īä»ĸ": 5749,
      "ç±³é¥Ń": 5750,
      "èĢģèĻİ": 5751,
      "èŀįåĲĪ": 5752,
      "å°ıæĺİçİ°åľ¨": 5753,
      "æİ¥è¿ĳ": 5754,
      "åĮħåĲ«äºĨ": 5755,
      "çļĦäº§åĵģ": 5756,
      "æ·±è¿ľ": 5757,
      "ä»·åĢ¼è§Ĥ": 5758,
      "éĽķ": 5759,
      "çĶµè§Ĩåī§": 5760,
      "ï¼ļ\\": 5761,
      "å¹¶ä¸įæĺ¯": 5762,
      "æĪª": 5763,
      "çŃīéĹ®é¢ĺ": 5764,
      "æ°´åĴĮ": 5765,
      "æŁĲç§į": 5766,
      "çļĦç¿»è¯ĳ": 5767,
      "æķĮ": 5768,
      "è¿Ļä»½": 5769,
      "éĤ»": 5770,
      "çļĦæĦıæĢĿæĺ¯": 5771,
      "æ½ľåľ¨": 5772,
      "åĽŀåĪ°": 5773,
      "return": 5774,
      "çĥŃéĹ¨": 5775,
      "ï½": 5776,
      "æ¸©å®¤æ°Ķä½ĵ": 5777,
      "ç´łé£Ł": 5778,
      "æľĢè¿ĳçļĦ": 5779,
      "éĿŀå¸¸éĢĤåĲĪ": 5780,
      "ä¸ŃçļĦåħ³éĶ®è¯į": 5781,
      "æĻļé¤Ĳ": 5782,
      "å¸Ń": 5783,
      "éĩįå¤§": 5784,
      "éĢĤéĩıçļĦ": 5785,
      "å°½éĩı": 5786,
      "æĶ¾å¼ĥ": 5787,
      "oogle": 5788,
      "çļĦæĶ¶": 5789,
      "çľŁæĺ¯": 5790,
      "æĽ´æľī": 5791,
      "ç¿»çĤĴ": 5792,
      "åŃ¦èĢħ": 5793,
      "çļĦçĸ": 5794,
      "ç¿©": 5795,
      "æ£ĭ": 5796,
      "è¯ķè¯ķ": 5797,
      "è¥¿çĵľ": 5798,
      "é»Ħçĵľ": 5799,
      "è¿Ļæ¬¡": 5800,
      "ç»ıåħ¸çļĦ": 5801,
      "èĭ±éĩĮ": 5802,
      "åĲ¬è¯´": 5803,
      "æĹĭè½¬": 5804,
      "éĺ¶æ®µ": 5805,
      "ä»¥ä¸ĭæĺ¯ä¸ĢäºĽ": 5806,
      "çĽ¸å½ĵ": 5807,
      "çĪ±çļĦ": 5808,
      "æĢİä¹Īè¯´": 5809,
      "hen": 5810,
      "æĹħç¨ĭ": 5811,
      "æ¼Ķè®²": 5812,
      "æľįåĬ¡åĳĺ": 5813,
      "çļĦæ¸©åº¦": 5814,
      "äºĮæ°§åĮĸç¢³": 5815,
      "ç»ĦæĪĲçļĦ": 5816,
      "çºłæŃ£": 5817,
      "èĪĴéĢĤçļĦ": 5818,
      "æĦ¿æĦı": 5819,
      "ä½Ĩä»ĸ": 5820,
      "é²¸é±¼": 5821,
      "Ġ24": 5822,
      "å¼ķäºº": 5823,
      "Ġte": 5824,
      "æīĭè¡¨": 5825,
      "åŃ¦ç§ĳ": 5826,
      "ä¸įç¡®å®ļ": 5827,
      "ally": 5828,
      "ç§ĳå¹»å°ıè¯´": 5829,
      "rou": 5830,
      "æ¼ı": 5831,
      "ç¼ºçĤ¹": 5832,
      "ç©ĨæľĹ": 5833,
      "é¦Ļæ°Ķ": 5834,
      "çļĦç¾İæĻ¯": 5835,
      "æĹħæ¸¸æĻ¯çĤ¹": 5836,
      "çĶ¨äºĨ": 5837,
      "çļĦç¤¾ä¼ļ": 5838,
      "ç©ĨæľĹçİĽ": 5839,
      "é©±": 5840,
      "æĭĵ": 5841,
      "åı¤è¯Ĺç»ŃåĨĻ": 5842,
      "è¯Ńå¢ĥ": 5843,
      "76": 5844,
      "ä¼į": 5845,
      "ç²¾å½©": 5846,
      "å¤§å¤ļæķ°": 5847,
      "æľ¬èº«": 5848,
      "æĽ´é«ĺ": 5849,
      "ä¸»æ¼Ķ": 5850,
      "éķ¿åº¦ä¸º": 5851,
      "éĩıåŃĲåĬĽåŃ¦": 5852,
      "Ġè¿Ļä¸ª": 5853,
      "çļĦæĥħç»ª": 5854,
      "act": 5855,
      "Ġ`": 5856,
      "å¥³åŃĲ": 5857,
      "æľ¨æĺŁ": 5858,
      "çļĦæĻ¯çĤ¹": 5859,
      "Ġì": 5860,
      "éľĢè¦ģå°Ĩ": 5861,
      "æŃ¥è¡Į": 5862,
      "è°ĥæĸĻ": 5863,
      "con": 5864,
      "âĢĻ": 5865,
      "ated": 5866,
      "Ġdes": 5867,
      "è§ĦèĮĥ": 5868,
      "å©ļç¤¼": 5869,
      "å°ºå¯¸": 5870,
      ":-": 5871,
      "è®¸å¤ļäºº": 5872,
      "éĩİé¤Ĳ": 5873,
      "æł¹æį®èĩªå·±çļĦ": 5874,
      "åħĭæĸ¯": 5875,
      "æĺ¾èĳĹ": 5876,
      "è¸ı": 5877,
      "ç©ĨæľĹçİĽå³°": 5878,
      "åĿĲåľ¨": 5879,
      "èĤīç±»": 5880,
      "çļĦæ¶Ī": 5881,
      ")ãĢĤ": 5882,
      "ä¸Ģèµ·åİ»": 5883,
      "ä¸¾åĬŀ": 5884,
      "ä¸§": 5885,
      "åĴĮåıĳå±ķ": 5886,
      "çģ£": 5887,
      "è´Łè´£": 5888,
      "è¯¥åħ¬åı¸": 5889,
      "å§Ķ": 5890,
      "æ±Ĥåĩº": 5891,
      "åĲĳéĩı": 5892,
      "é¢Ħè®¡": 5893,
      "ä¼Ļä¼´": 5894,
      "ĠçĶ¨": 5895,
      "æŀ«": 5896,
      "å®ŀéĻħä¸Ĭ": 5897,
      "éĤ£ä½łèĥ½": 5898,
      "ä¸ĭçļĦ": 5899,
      "åı¯ä»¥æıĲé«ĺ": 5900,
      "å¸®æĪĳçĶŁæĪĲåķĨåĵģæĸĩæ¡Ī": 5901,
      "æĹ©æĻ¨": 5902,
      "å¸®æĪĳçĶŁæĪĲåķĨåĵģæĸĩæ¡Īè¾ĵåħ¥": 5903,
      "è¤": 5904,
      "äºĭé¡¹": 5905,
      "å±Ĥæ¬¡": 5906,
      "å¾Ģå¾Ģ": 5907,
      "æĺİçĻ½äºĨ": 5908,
      "å¼ºå¤§çļĦ": 5909,
      "è¿Ļæĺ¯ä¸Ģç¯ĩ": 5910,
      "çĶ¢": 5911,
      "åı¯åĨįçĶŁ": 5912,
      "æķĪçİĩåĴĮ": 5913,
      "æĶ¾ç½®": 5914,
      "ç½ĳä¸Ĭ": 5915,
      "åİĤ": 5916,
      "çĽ´å¾Ħ": 5917,
      "ens": 5918,
      "æ¨¡ä»¿": 5919,
      "çĶŁæĪĲæĸĩæ¡Ī": 5920,
      "æĹłå°½": 5921,
      "å¿ĥçĲĨåŃ¦": 5922,
      "çļĦçĥ¤": 5923,
      "çļĦæĭ¼": 5924,
      "å°¤åħ¶æĺ¯": 5925,
      "ä¸Ĭæĺł": 5926,
      "å½ĵæĪĳä»¬": 5927,
      "äººå£«": 5928,
      "çļĦæ½": 5929,
      "éļ¾å¿ĺ": 5930,
      "åĺ´": 5931,
      "è¿Ļåľº": 5932,
      "ä¸įåĨį": 5933,
      "æĤ²ä¼¤": 5934,
      "çį": 5935,
      "å®ļåĪ¶": 5936,
      "sum": 5937,
      "ä¸ºä¸»é¢ĺ": 5938,
      "èĬ±æľµ": 5939,
      "åĲįè¯įçŁŃè¯Ń": 5940,
      "eb": 5941,
      "éľį": 5942,
      "åĨħçļĦ": 5943,
      "¬éĹ´": 5944,
      "ä¸įèµ·": 5945,
      "ä¿®å¤į": 5946,
      "çļĦç´": 5947,
      "è¿ľå¤Ħ": 5948,
      "log": 5949,
      "åĩºä¸Ģä¸ª": 5950,
      "æı´": 5951,
      "è¾Ľ": 5952,
      "çķ¶": 5953,
      "è¯»ä¹¦": 5954,
      "å¹½é»ĺ": 5955,
      "æĬĳ": 5956,
      "éĿŀå¸¸éĩįè¦ģ": 5957,
      "çıłç©ĨæľĹçİĽå³°": 5958,
      "æķ°ç»Ħ": 5959,
      "åĽŀæĶ¶": 5960,
      "é»Ľ": 5961,
      "æķ°éĩıä¸º": 5962,
      "å¥¥è¿Ĳ": 5963,
      "éĢĹåı·": 5964,
      "ah": 5965,
      "ç¬¼": 5966,
      "æ¡Īä»¶": 5967,
      "æŁĶåĴĮ": 5968,
      "çļĦè·Ŀç¦»": 5969,
      "çļĦåĲĮä¹īè¯į": 5970,
      "å¿ĥèĦı": 5971,
      "æ¯ıä¸Ģä¸ª": 5972,
      "æī«": 5973,
      "æĮĩåįĹ": 5974,
      "Ġet": 5975,
      "å¤§äºİ": 5976,
      "å¸®æĤ¨": 5977,
      "èĬ±äºĨ": 5978,
      "Ġpe": 5979,
      "å¼ķåıĳ": 5980,
      "Ch": 5981,
      "çļĦåľºæĻ¯": 5982,
      "å«©": 5983,
      "æĿİæĺİ": 5984,
      "çĽĳæµĭ": 5985,
      "åħ¨éĥ¨": 5986,
      "åŁ¹åħ»": 5987,
      "çīĽä»Ķè£¤": 5988,
      "ï¼īï¼ļ": 5989,
      "æĪĳåĸľæ¬¢åľ¨": 5990,
      "æģ¢å¤į": 5991,
      "è¾¹éķ¿": 5992,
      "çĵ·": 5993,
      "âĢ¦âĢ¦": 5994,
      "120": 5995,
      "éĻĮ": 5996,
      "éĤ¦": 5997,
      "åĽŀå¤į": 5998,
      "èģĺ": 5999,
      "å®ĥä»¬ä¹ĭéĹ´çļĦ": 6000,
      "æłĳæľ¨": 6001,
      "%ï¼Į": 6002,
      "å°ıåĿĹ": 6003,
      "æľīæĹ¶": 6004,
      "éĹ°": 6005,
      "æ»ĭ": 6006,
      "è¯·éĹ®æĤ¨": 6007,
      "äºļé©¬": 6008,
      "æķ°æį®åºĵ": 6009,
      "ian": 6010,
      "èµ·æºĲ": 6011,
      "Ġcat": 6012,
      "åĪĽéĢłä¸Ģä¸ª": 6013,
      "å¤ĩçĶ¨": 6014,
      "çĩ¥": 6015,
      "å°ĩ": 6016,
      "æ²ĥ": 6017,
      "å£¶": 6018,
      "åĳ¨æľŁ": 6019,
      "å¹¼": 6020,
      "çĽ¸æ¯Ķ": 6021,
      "çĶŁåĳ½çļĦ": 6022,
      "çļĦå¹³æĸ¹": 6023,
      "æĪĲæŀľ": 6024,
      "ä¸ĬäºĨ": 6025,
      "ĊĠĠĠ": 6026,
      "è¶ħçº§": 6027,
      "åħĭçļĦæķĳèµİ": 6028,
      "è¿«": 6029,
      "åŃ¦æľ¯": 6030,
      "çļĦçģµ": 6031,
      "é½¿": 6032,
      "æĥħå¢ĥ": 6033,
      "Ġflo": 6034,
      "æĬĬè¿Ļåı¥è¯Ŀ": 6035,
      "æĸ°éĹ»æĸĩç«ł": 6036,
      "è¡¨çİ°åĩº": 6037,
      "ds": 6038,
      "å¯¹äººç±»": 6039,
      "Ġpr": 6040,
      "åįĥåħĭ": 6041,
      "åŃ©åŃĲä»¬": 6042,
      "å¿ħè¦ģçļĦ": 6043,
      "çĶµå½±åĲįç§°": 6044,
      "Ġä½¿çĶ¨": 6045,
      "å°¿": 6046,
      "èĤĸçĶ³åħĭçļĦæķĳèµİ": 6047,
      "æ°Ľ": 6048,
      "çŃīåĽłç´ł": 6049,
      "è¿Ļé¦ĸè¯Ĺ": 6050,
      "ä¸ŃæıĲåıĸ": 6051,
      "åı¯ä»¥åĪĨåĪ°": 6052,
      "éĻ¤æŃ¤": 6053,
      "çļĦæĬĢèĥ½": 6054,
      "ä¸ŃçļĦåºĶçĶ¨": 6055,
      "ï¼ħ": 6056,
      "Ġ14": 6057,
      "æĿİçĻ½": 6058,
      "äºļé©¬éĢĬ": 6059,
      "æĪĳå·²ç»ı": 6060,
      "å¯¹çİ¯å¢ĥ": 6061,
      "ä¾ĽåºĶ": 6062,
      "ç¼Ģ": 6063,
      "çīĩæ®µ": 6064,
      "iss": 6065,
      "èĲ½åı¶": 6066,
      "æº¶": 6067,
      "çļĦçī¹å¾ģ": 6068,
      "çļĦå½¢å¼ı": 6069,
      "æľīäºº": 6070,
      "ĠåĩĨå¤ĩ": 6071,
      "æħĪ": 6072,
      "æĿ¯åŃĲ": 6073,
      "æĻ®éģį": 6074,
      "åľ¨è¿ĩåİ»": 6075,
      "éĢĤçĶ¨äºİ": 6076,
      "åĮ¹éħį": 6077,
      "Ġpar": 6078,
      "éĻ¤æŃ¤ä¹ĭå¤ĸ": 6079,
      "my": 6080,
      "æµ·é²ľ": 6081,
      "å°ıæĺİè¿ĺåī©ä¸ĭ": 6082,
      "åħ±äº«": 6083,
      "æĢİä¹ĪåĬŀ": 6084,
      "å¤ļæł·æĢ§": 6085,
      "ile": 6086,
      "åľ¨æĪĳ": 6087,
      "æĥ§": 6088,
      "æĪĺæĸĹ": 6089,
      "Ġrange": 6090,
      "æ°ĽåĽ´": 6091,
      "ä¿Ħ": 6092,
      "èĭ±å¯¸": 6093,
      "è¯¦ç»ĨçļĦ": 6094,
      "åıĮæĸ¹": 6095,
      "ä¸įåĪ°": 6096,
      "å¦ĤåĲĮ": 6097,
      "çļĦåīį": 6098,
      "éĤĢè¯·": 6099,
      "æķħäºĭæĥħèĬĤ": 6100,
      "æĪĳä¸ºæĤ¨": 6101,
      "å¯¹ä»¥ä¸ĭ": 6102,
      "çĮ´": 6103,
      "æĬĢæľ¯åĴĮ": 6104,
      "å¸®åĬ©æĤ¨": 6105,
      "æ¦Ĥè¿°": 6106,
      "çļĦæ¤į": 6107,
      "çļĦé¤Ĳåİħ": 6108,
      "è¿Ī": 6109,
      "å¦ĤæŀľæĤ¨éľĢè¦ģ": 6110,
      "åĬłéĢŁ": 6111,
      "æķ´çĲĨ": 6112,
      "æľīä¸Ģå¤©": 6113,
      "åľ°çĲĨ": 6114,
      "çº¿æĿ¡": 6115,
      "æĪ¿åŃĲ": 6116,
      "æĪ¿å±ĭ": 6117,
      "èĤĮèĤ¤": 6118,
      "çļĦæ¯Ķä¾ĭ": 6119,
      "åľ¨ä¸ŃåĽ½": 6120,
      "è¯·å°Ĩ": 6121,
      "å°ıæĺİçļĦ": 6122,
      "è§£åĨ³è¿Ļä¸ªéĹ®é¢ĺ": 6123,
      "ç½Ĺé©¬": 6124,
      "å¹´è½»äºº": 6125,
      "åĭ¤": 6126,
      "è¡¨ç¤ºä¸º": 6127,
      "84": 6128,
      "jour": 6129,
      "Ġim": 6130,
      "è¦ģæ³¨æĦı": 6131,
      "ä¼ĺåħĪ": 6132,
      "æ¥Ń": 6133,
      "aut": 6134,
      "æİĴåĲį": 6135,
      "é¥®åĵģ": 6136,
      "åĢ¾åĲĳ": 6137,
      "ä¹ĭæĹħ": 6138,
      "ä¸ĭéĿ¢çļĦ": 6139,
      "åİŁå§ĭæĸĩæľ¬": 6140,
      "æ¶¨": 6141,
      "åıįæĺł": 6142,
      "èģĶåĲĪ": 6143,
      "æĢ§è´¨": 6144,
      "çĲ³": 6145,
      "ç»ĻäºĪ": 6146,
      "å½¢æĢģ": 6147,
      "è¿ĻäºĽä¿¡æģ¯": 6148,
      "37": 6149,
      "é£İåħī": 6150,
      "ä¼¤å®³": 6151,
      "ä¸ŃéĹ´": 6152,
      "æīĢè¿°": 6153,
      "Ġall": 6154,
      "äºļæ´²": 6155,
      "ft": 6156,
      "Ġz": 6157,
      "æĪĳå¸ĮæľĽ": 6158,
      "å®¶çĶ¨": 6159,
      "èĢĮæĪĲ": 6160,
      "å®¢åİħ": 6161,
      "æĺİæ²»": 6162,
      "è¿Ļä¸ªè¯į": 6163,
      "è¿Ľè¡ĮæİĴåºı": 6164,
      "ä¾Ŀèµĸ": 6165,
      "çļĦä½ľçĶ¨": 6166,
      "æĪĳä»Ĭå¤©": 6167,
      "è¿Ļåı¥": 6168,
      "å¯¹æīĭ": 6169,
      "éķ¿åŁİ": 6170,
      "æ¬¾å¼ı": 6171,
      "çģµæĦŁ": 6172,
      "åįıè®®": 6173,
      "du": 6174,
      "çļĦèĩªçĦ¶": 6175,
      "è¡¨è¾¾å¼ı": 6176,
      "çļĦæĬ¥": 6177,
      "çĿ¡è§ī": 6178,
      "çļĦæĶ¯æĮģ": 6179,
      "è´¯": 6180,
      "èĩ³åħ³": 6181,
      "éĻªä¼´": 6182,
      "çħ®çĨŁ": 6183,
      "æĦıè¯ĨåĪ°": 6184,
      "æĿ¨": 6185,
      "åĲĪæ³ķ": 6186,
      "æĸĩæľ¬ä¸ŃçļĦåħ³éĶ®è¯į": 6187,
      "Ġçĥ¤": 6188,
      "å¤§æĪĺ": 6189,
      "æĽ´æĶ¹": 6190,
      "æīĭæ®µ": 6191,
      "æ¶Īæģ¯": 6192,
      "çĵ¦": 6193,
      "ä¼łç»ŁçļĦ": 6194,
      "æĭħå¿ĥ": 6195,
      "éĹ®é¢ĺçļĦ": 6196,
      "æ¨£": 6197,
      "39": 6198,
      "ä¸Ģæ®µæĸĩåŃĹ": 6199,
      "éĩĳé»Ħèī²": 6200,
      "æµªè´¹": 6201,
      "çļĦç¨ĭåºı": 6202,
      "åĲįåı«": 6203,
      "æ£µ": 6204,
      "åį³å°Ĩ": 6205,
      "æķıæį·çļĦæ£ķèī²çĭĲçĭ¸è·³è¿ĩ": 6206,
      "æĢģåº¦": 6207,
      "è®¢åįķ": 6208,
      "æĪĸæĺ¯": 6209,
      "æĿİåĽĽ": 6210,
      "æ¶Į": 6211,
      "ç§ĺå¯Ĩ": 6212,
      "çļĦæĢ§èĥ½": 6213,
      "æĿ¥çľĭ": 6214,
      "Ġ200": 6215,
      "åģ¥åº·åĴĮ": 6216,
      "ç¬Ķè®°": 6217,
      "ä¸įéĶĻçļĦéĢīæĭ©": 6218,
      "è¶³å¤ŁçļĦ": 6219,
      "æĹĹ": 6220,
      "è¿Ļå°Ĩ": 6221,
      "åĮ»çĸĹé¢ĨåŁŁ": 6222,
      "ä¼ģé¹ħ": 6223,
      "èĳ¡èĲĦéħĴ": 6224,
      "ä¹ĭåĴĮ": 6225,
      "èĭ¹æŀľåħ¬åı¸": 6226,
      "æ²³æµģ": 6227,
      "æĽ´å¥½åľ°çĲĨè§£": 6228,
      "åįĵ": 6229,
      "å®ļä½į": 6230,
      "ä¿¡ä»°": 6231,
      "çļĦæ¢¦æĥ³": 6232,
      "æľ¯è¯Ń": 6233,
      "èıł": 6234,
      "çļĦè¿ĩç¨ĭä¸Ń": 6235,
      "ãĢĤï¼Ī": 6236,
      "åĴĮé«ĺ": 6237,
      "é¡Į": 6238,
      "Ġhow": 6239,
      "çļĦç¼ĸç¨ĭ": 6240,
      "å¯¦": 6241,
      "è¿ĲåĬ¨åĳĺ": 6242,
      "çº¢éħĴ": 6243,
      "æ¸ħæ´Ĺ": 6244,
      "å¾Īå¿«": 6245,
      "çļĦè¯Ŀé¢ĺ": 6246,
      "çĸĳéĹ®åı¥": 6247,
      "æ¯ıä»½": 6248,
      "é¥±": 6249,
      "85": 6250,
      "å¹¶è¿ĶåĽŀ": 6251,
      "ç®ĢåĮĸ": 6252,
      "åı¯èĥ½å¯¼èĩ´": 6253,
      "çİīç±³": 6254,
      "any": 6255,
      "æ¢¯": 6256,
      "æĪĳä»¬åı¯ä»¥å°Ĩ": 6257,
      "éģĹä¼ł": 6258,
      "åĴĮæĹ¶éĹ´": 6259,
      "æĪĳä¸įèĥ½": 6260,
      "å°ıæĿİ": 6261,
      "ans": 6262,
      "æ±īåł¡": 6263,
      "çļĦä»£è¡¨": 6264,
      "çªģåĩº": 6265,
      "çļĦçĬ¶æĢģ": 6266,
      "äº¦": 6267,
      "äºĨå¾Īå¤ļ": 6268,
      "ä¸īæĺİæ²»": 6269,
      "åı¯èĥ½æĢ§": 6270,
      "æ©Ļèī²": 6271,
      "éĢıæĺİ": 6272,
      "èªīä¸º": 6273,
      "æĺĤ": 6274,
      "æĪĳå»ºè®®": 6275,
      "èµ¶": 6276,
      "éģĹäº§": 6277,
      "çļĦåĬŁèĥ½": 6278,
      "åħ½": 6279,
      "å¤ļå½©": 6280,
      "åĪļåĪļ": 6281,
      "çľŁæŃ£çļĦ": 6282,
      "æ°Ķæģ¯": 6283,
      "éªĹ": 6284,
      "èĮ«": 6285,
      "ä¸»é¢ĺæĺ¯": 6286,
      "ç¥ŀå¥ĩ": 6287,
      "é¢ľèī²çļĦ": 6288,
      "è¿½éĢĲ": 6289,
      "XXX": 6290,
      "Ä±": 6291,
      "çĥĺ": 6292,
      "èº«è¾¹": 6293,
      "æł¸å¿ĥ": 6294,
      "çļĦæİ¨çĲĨ": 6295,
      "çĭĹçļĦ": 6296,
      "éĩįè§Ĩ": 6297,
      "å¾Īæ£Ĵ": 6298,
      "åİ»å¹´": 6299,
      "reat": 6300,
      "å¤±åİ»": 6301,
      "é»Ħæ²¹": 6302,
      "æ½º": 6303,
      "èĥ½åĪĨåĪ°": 6304,
      "å°ıåŀĭ": 6305,
      "ä¼ļåľ¨": 6306,
      "ç©ºä¸Ń": 6307,
      "æ·±æ·±": 6308,
      "çļĦæĬĢå·§": 6309,
      "è¡ĵ": 6310,
      "æļĹç¤º": 6311,
      "çļĦå¤§å°ı": 6312,
      "é¬¼": 6313,
      "çĽ¾": 6314,
      "ä¹ŁéľĢè¦ģ": 6315,
      "Ġ40": 6316,
      "è½¨éģĵ": 6317,
      "ew": 6318,
      "æĿ¥åĪ°": 6319,
      ")ï¼Į": 6320,
      "æ¨ª": 6321,
      "è¾ĥä¸º": 6322,
      "æĥĳ": 6323,
      "å¤ļäºĳ": 6324,
      "æĤ¨å¥½": 6325,
      "åĪ©çĽĬ": 6326,
      "å½ĵåľ°çļĦ": 6327,
      "èŃ¦å¯Ł": 6328,
      "éĺ²æĻĴ": 6329,
      "çļĦæīĭæľº": 6330,
      "ç¡®å®ŀ": 6331,
      "åĮĹäº¬å¸Ĥ": 6332,
      "å»ºçŃĳçī©": 6333,
      "è½¬æį¢æĪĲ": 6334,
      "æľīä»»ä½ķ": 6335,
      "çĶŁåĬ¨çī©": 6336,
      "æĮĩç¤º": 6337,
      "pon": 6338,
      "Ġwill": 6339,
      "èı²å°Ķ": 6340,
      "åľ¨éĤ£éĩĮ": 6341,
      "æ¯ģ": 6342,
      "å½ĵä»Ĭ": 6343,
      "ç²®": 6344,
      "éħ·": 6345,
      "åĬłå¯Ĩ": 6346,
      "æģ°": 6347,
      "æīĵç®Ĺ": 6348,
      "å¤Ħäºİ": 6349,
      "æĹłè®ºæĺ¯": 6350,
      "å¹¶ä¸º": 6351,
      "èº«ä¸Ĭ": 6352,
      "çļĦæĦıå¤§åĪ©": 6353,
      "çĶŁæľº": 6354,
      "åħĪè¿Ľ": 6355,
      "åİĨåı²ä¸Ĭ": 6356,
      "åĴĮä¸į": 6357,
      "äº¤éĢļå·¥åħ·": 6358,
      "ĠåĽłæŃ¤": 6359,
      "ä¼ļæľī": 6360,
      "éĿŀå¸¸æľī": 6361,
      "èĥĥ": 6362,
      "é¢ĦçĥŃ": 6363,
      "å¤±è´¥": 6364,
      "å®´": 6365,
      "åĨĮ": 6366,
      "çļĦç¤¼": 6367,
      "é»ĳèĥ¡æ¤Ĵ": 6368,
      "åĸĦèī¯": 6369,
      "å¸ĿåĽ½": 6370,
      "åı£è¯Ń": 6371,
      "entence": 6372,
      "âĢĿï¼ĮâĢľ": 6373,
      "æľīæīĢä¸įåĲĮ": 6374,
      "åĲĮäºĭ": 6375,
      "400": 6376,
      "éĿĴæĺ¥": 6377,
      "å¥¥æĸ¯": 6378,
      "Ġel": 6379,
      "æ¬º": 6380,
      "å¾Īå¤§": 6381,
      "å®ĺæĸ¹": 6382,
      "æĺ¯åĵª": 6383,
      "éĢłåŀĭ": 6384,
      "æĢİä¹Īåģļ": 6385,
      "çļĦçĭ¬": 6386,
      "åĬŀåħ¬å®¤": 6387,
      "Øª": 6388,
      "å¥ĳ": 6389,
      "å±ŀæĢ§": 6390,
      "è¿Ļæ®µè¯Ŀ": 6391,
      "åĪĨåĪ«ä¸º": 6392,
      "æĨ": 6393,
      "çļĦæ¡": 6394,
      "ä»ĸæĬĬ": 6395,
      "åİŁåĪĻ": 6396,
      "çļĦä¸į": 6397,
      "æĢĴ": 6398,
      "æĪĲåĬŁçļĦ": 6399,
      "æĸ°äº§åĵģ": 6400,
      "angu": 6401,
      "ĠØ§ÙĦ": 6402,
      "é²¨": 6403,
      "è´¸æĺĵ": 6404,
      "ä¸Ľ": 6405,
      "åĴĮåĪĨæŀĲ": 6406,
      "æĺ¯æĪĳä»¬": 6407,
      "çļĦçģ«": 6408,
      "ep": 6409,
      "Ġ?": 6410,
      "æľĢéĩįè¦ģ": 6411,
      "åİ»åħ¬åĽŃ": 6412,
      "è¿Ľè¡Įæĳĺè¦ģ": 6413,
      "çŃĶæ¡Īä¸º": 6414,
      "çº¿æĢ§": 6415,
      "éĹ»åĲį": 6416,
      "åı¯ä¹Ĳ": 6417,
      "éĻĮçĶŁ": 6418,
      "é¦Ļèįī": 6419,
      "èħ¹": 6420,
      "---": 6421,
      "éĢĿ": 6422,
      "æ´ª": 6423,
      "è°¨": 6424,
      "å¤±æľĽ": 6425,
      "åľŁåľ°": 6426,
      "è¿Ļä¸¤": 6427,
      "ä¸Ĭæĸĩ": 6428,
      "Al": 6429,
      "åķı": 6430,
      "ä¸»èıľ": 6431,
      "ä»İç»Ļå®ļçļĦ": 6432,
      "èĥİ": 6433,
      "ðŁ": 6434,
      "çļĦä»»åĬ¡": 6435,
      "å°ıçİĭ": 6436,
      "çļĦçľĭ": 6437,
      "æĬ½åıĸåĩº": 6438,
      "æ¾³": 6439,
      "ä¸įå¥½": 6440,
      "æĭĸ": 6441,
      "ä¹Łèĥ½": 6442,
      "Ġsum": 6443,
      "è¾ĥé«ĺ": 6444,
      "result": 6445,
      "å°Ĭæķ¬çļĦ": 6446,
      "ä¹ĭæĥħ": 6447,
      "æĮīåŃĹæ¯įé¡ºåºı": 6448,
      "çļĦç©ºæ°Ķ": 6449,
      "ä¹Ĳè¶£": 6450,
      "éĵģå¡Ķ": 6451,
      "çĩĥæĸĻ": 6452,
      "æĸĩèīº": 6453,
      "å®¶éĩĮ": 6454,
      "é«ĺæ¸©": 6455,
      "æ¯Ķå¦Ĥè¯´": 6456,
      "è·³è·ĥ": 6457,
      "æĤ¨åı¯ä»¥åľ¨": 6458,
      "ä¼Ĺå¤ļ": 6459,
      "éģµå¾ª": 6460,
      "In": 6461,
      "åĪ¸": 6462,
      "æĪĳè§īå¾Ĺ": 6463,
      "è®¡ç®Ĺæľºè§Ĩè§ī": 6464,
      "è½´": 6465,
      "åıĳçİ°äºĨ": 6466,
      "æĪĳæŃ£åľ¨": 6467,
      "æĦŁæ¿Ģ": 6468,
      "çĽ¸åħ³ä¿¡æģ¯": 6469,
      "get": 6470,
      "åı¯åĨįçĶŁèĥ½æºĲ": 6471,
      "ä»ĩ": 6472,
      "ther": 6473,
      "ç°": 6474,
      "éľĢè¦ģè¿Ľè¡Į": 6475,
      "æĸĩæľ¬åĨħå®¹": 6476,
      "å§Ĩæĸ¯": 6477,
      "çļĦåĴĸåķ¡": 6478,
      "åľ¨è¿Ļç§į": 6479,
      "æİ¥è§¦": 6480,
      "ER": 6481,
      "æľºåĻ¨ç¿»è¯ĳ": 6482,
      "io": 6483,
      "æ¶ĪèĢĹ": 6484,
      "çļĦçĽ®æłĩ": 6485,
      "å¯Ħ": 6486,
      "æ³ª": 6487,
      "åľ°éĵģ": 6488,
      "æıĲåīį": 6489,
      "æ¸´": 6490,
      "å¥¥è¿Ĳä¼ļ": 6491,
      "bers": 6492,
      "å§ĭç»Ī": 6493,
      "ific": 6494,
      "æĬĺæī£": 6495,
      "br": 6496,
      "Ġå¦Ĥæŀľ": 6497,
      "æĪĳåı¯ä»¥ä¸ºæĤ¨": 6498,
      "è¿Ļä¹Ī": 6499,
      "æĦĪ": 6500,
      "ä½łåľ¨": 6501,
      "æ²¸": 6502,
      "æ¸ħæ¥ļ": 6503,
      "æ¸Ĳæ¸Ĳ": 6504,
      "è¡Ĺéģĵ": 6505,
      "ç»ŃåĨĻåı¤è¯Ĺ": 6506,
      "å¦»": 6507,
      "æľ¬è´¨": 6508,
      "å»ºéĢł": 6509,
      "è¢«èªīä¸º": 6510,
      "èħĬ": 6511,
      "åħ¶ä¸Ńä¸Ģä¸ª": 6512,
      "ä¸Ģåĳ¨": 6513,
      "å¤©ä½ĵ": 6514,
      "ä½ľä¸ļ": 6515,
      "æĻºèĥ½æīĭæľº": 6516,
      "Ġ60": 6517,
      "äººæķ°ä¸º": 6518,
      "æŀľæ±ģ": 6519,
      "éĤ£è¯·éĹ®": 6520,
      "éļľç¢į": 6521,
      "éĿ¢ä¸Ĭåįĩ": 6522,
      "æ·Ģ": 6523,
      "He": 6524,
      "åĴĮåºĶçĶ¨": 6525,
      "åħ¶å®ŀ": 6526,
      "åĲ¦å®ļ": 6527,
      "ä¸įå°ĳ": 6528,
      "æīĭå·¥": 6529,
      "çļĦä¸»è¦ģåĨħå®¹": 6530,
      "å¿łè¯ļ": 6531,
      "åı¥åŃĲä¸ŃçļĦ": 6532,
      "ĠPro": 6533,
      "izza": 6534,
      "èŁ": 6535,
      "Ġsp": 6536,
      "æĺ¯ä¸ĸçķĮä¸ĬæľĢ": 6537,
      "åĮĨ": 6538,
      "åĩºèī²çļĦ": 6539,
      "èģĶçĽŁ": 6540,
      "éĵ¶æ²³": 6541,
      "æ±īè¯Ń": 6542,
      "åĨ²çªģ": 6543,
      "éĤ£è¯·ä½ł": 6544,
      "çļĦæĢģåº¦": 6545,
      "ï¼ļ\",": 6546,
      "çĩĥçĥ§": 6547,
      "æĮĸ": 6548,
      "åĳ½è¿Ĳ": 6549,
      "æĿľ": 6550,
      "ample": 6551,
      "éĿ©åĳ½": 6552,
      "è«": 6553,
      "çļĦå¹³åĿĩ": 6554,
      "æĦıè§ģ": 6555,
      "èįīåİŁ": 6556,
      "åĩłä¸ªç³ĸæŀľ": 6557,
      "ç±»ä¼¼äºİ": 6558,
      "01": 6559,
      "Ġbut": 6560,
      "çļĦäººçī©": 6561,
      "×Ļ": 6562,
      "çĲĨçĶ±": 6563,
      "åħ¬æĸ¤": 6564,
      "æŁ³": 6565,
      "æĺ¯ä¸Ģæ¬¾": 6566,
      "æ¶¯": 6567,
      "åģļæ³ķ": 6568,
      "åı¯ä»¥å°Ŀè¯ķ": 6569,
      "è¿ĩæ»¤": 6570,
      "ä»Ĭå¤©çļĦå¤©æ°Ķ": 6571,
      "ĠTh": 6572,
      "é«ĺè´¨éĩı": 6573,
      "ance": 6574,
      "çĶ·äºº": 6575,
      "éĹ¹": 6576,
      "åİ¦": 6577,
      "çĶµåĻ¨": 6578,
      "éĤ£ä¹Īè¯·ä½ł": 6579,
      "ä¸ĵå®¶": 6580,
      "çļĦæİ¢": 6581,
      "æĸĩåŃ¦ä½ľåĵģ": 6582,
      "çļĦæĲ": 6583,
      "ç²¾ç¡®": 6584,
      "éĽ¶é£Ł": 6585,
      "æĺ¯éĢļè¿ĩ": 6586,
      "åĩĮ": 6587,
      "åĿĽ": 6588,
      "å°±ä¸ļ": 6589,
      "Ġcont": 6590,
      "fer": 6591,
      "è´«": 6592,
      "æľ¬å°ıè¯´": 6593,
      "è®°å¾Ĺ": 6594,
      "AB": 6595,
      "çļĦåĲĮæĹ¶": 6596,
      "éĨĩ": 6597,
      "çĽĸèĮ¨": 6598,
      "çļĦæ¤įçī©": 6599,
      "æĮº": 6600,
      "æĶĢ": 6601,
      "è±¹": 6602,
      "ä¸Ģç¯ĩåħ³äºİ": 6603,
      "å¯ĮåĲ«": 6604,
      "éĺĲè¿°": 6605,
      "à§": 6606,
      "çļĦæĹ¥æľŁ": 6607,
      "æľīä¸Ģåıª": 6608,
      "å¥½å¤Ħ": 6609,
      "å¹¶ä½¿çĶ¨": 6610,
      "æĺŁéĻħ": 6611,
      "ä¸ĭéĿ¢çļĦéĹ®é¢ĺ": 6612,
      "vers": 6613,
      "éªĳèĩªè¡Įè½¦": 6614,
      "é¢ĺæĦı": 6615,
      "ç®Ń": 6616,
      "æĪĳä»¬çļĦçĶŁæ´»": 6617,
      "ä¼¦çĲĨ": 6618,
      "å¡«åĨĻ": 6619,
      "é«ĺçļĦå±±å³°": 6620,
      "çľĭçĿĢ": 6621,
      "æĶ¯åĩº": 6622,
      "è¡£è£Ļ": 6623,
      "ä½łæĺ¯": 6624,
      "çļĦæĻ¯èī²": 6625,
      "ç´§æĢ¥": 6626,
      "ram": 6627,
      "çļĦå¤ĸ": 6628,
      "å¹³éĿĻ": 6629,
      "ç»Ļå®ļä¸¤ä¸ª": 6630,
      "ç¬ĳè¯Ŀ": 6631,
      "æĪĳè¿ĺ": 6632,
      "æĸ¹å½¢çļĦ": 6633,
      "è®©å®ĥ": 6634,
      "å·²ç»ıæĪĲä¸º": 6635,
      "åıĻ": 6636,
      "åįĥç±³": 6637,
      "æıŃç¤º": 6638,
      "çĽ¸äºĴä½ľçĶ¨": 6639,
      "åľ°åĲį": 6640,
      "éĿ¢çļĦ": 6641,
      "åĬĽäºİ": 6642,
      "åı¶åŃĲ": 6643,
      "æ¯ıä¸ªäººéĥ½": 6644,
      "Ġro": 6645,
      "ä¸Ģå®ļçļĦ": 6646,
      "ä¸ĬåįĪ": 6647,
      "éģ®": 6648,
      "éĶ¦": 6649,
      "ç»ıçĲĨ": 6650,
      "å¼ºåº¦": 6651,
      "ç»Ŀå¯¹": 6652,
      "ï¼Į\"": 6653,
      "æ²īæµ¸": 6654,
      "æľīä¸¤ä¸ª": 6655,
      "éķ·": 6656,
      "ç®ĢåİĨ": 6657,
      "åłµ": 6658,
      "çī¹åĪ«æĺ¯": 6659,
      "66": 6660,
      "è¾ī": 6661,
      "Ñĥ": 6662,
      "cri": 6663,
      "ä¸Ģåº§": 6664,
      "éĵĥ": 6665,
      "çĶŁæĪĲä¸Ģä¸ªåħ³äºİ": 6666,
      "æ²Ļæ¼ł": 6667,
      "38": 6668,
      "æĪĲçĨŁ": 6669,
      "ä¼łè¾ĵ": 6670,
      "æľºåĻ¨åŃ¦ä¹łç®Ĺæ³ķ": 6671,
      "çļĦä¾ĭåŃĲ": 6672,
      "çļĦçĤ": 6673,
      "èĥĨ": 6674,
      "åĩĨç¡®æĢ§": 6675,
      "ä¸ªæĢ§åĮĸ": 6676,
      "å¯º": 6677,
      "æ³ķè§Ħ": 6678,
      "ä½ĵç³»": 6679,
      "ç½ļ": 6680,
      "å®ĥä»¬åľ¨": 6681,
      "åŁ¹è®Ń": 6682,
      "ä¼ĺç§ĢçļĦ": 6683,
      "å¤ļå°ĳä¸ª": 6684,
      "èĥ½åĬĽåĴĮ": 6685,
      "éĿĴå¹´": 6686,
      "é¹°": 6687,
      "æĺ¯ä¸į": 6688,
      "åŃĻ": 6689,
      "æ°´çļĦ": 6690,
      "),": 6691,
      "æĦıå¤ĸ": 6692,
      "è´¦æĪ·": 6693,
      "å¯¹æ¯Ķ": 6694,
      "å½ĵæĪĳ": 6695,
      "æº¢": 6696,
      "åįĩé«ĺ": 6697,
      "ä¿®é¥°": 6698,
      "çļĦæĬķ": 6699,
      "æĿ¥è§£åĨ³è¿Ļä¸ªéĹ®é¢ĺ": 6700,
      "èī°": 6701,
      "æĮĩæłĩ": 6702,
      "åĬłåİļ": 6703,
      "æķ°æį®åĪĨæŀĲ": 6704,
      "åĩºçİ°åľ¨": 6705,
      "ä½łæĥ³": 6706,
      "æľŁæľĽ": 6707,
      "åĻª": 6708,
      "éĺŁä¼į": 6709,
      "æĤ¬çĸĳ": 6710,
      "ven": 6711,
      "å¤·": 6712,
      "å¼¥": 6713,
      "å®ļçĲĨ": 6714,
      "æł·æľ¬": 6715,
      "ä¸ĸçķĮæĿ¯": 6716,
      "è¿ŀè¡£è£Ļ": 6717,
      "æīĢéľĢçļĦ": 6718,
      "éĢ²è¡Į": 6719,
      "ä¸ºx": 6720,
      "çīĽæİĴ": 6721,
      "123": 6722,
      "çļĦè¿ĲåĬ¨": 6723,
      "è°ĭ": 6724,
      "è¿Ļä¸ªæķħäºĭ": 6725,
      "éŁ§": 6726,
      "æĢ»ä½ĵ": 6727,
      "æ¿ĢçĥĪ": 6728,
      "èĻļæĭŁçİ°å®ŀ": 6729,
      "å°ıæĺİä»Ĭå¤©": 6730,
      "ä¸ĢçĽ´åľ¨": 6731,
      "Ġé¦ĸåħĪ": 6732,
      "æĪĳä¹Ł": 6733,
      "åĪĨè§£": 6734,
      "å®¹éĩı": 6735,
      "æĻ¯èī²": 6736,
      "åĨ°ç®±": 6737,
      "æµ·å¹³éĿ¢ä¸Ĭåįĩ": 6738,
      "åħģ": 6739,
      "éĹ®çŃĶ": 6740,
      "åĽŀçŃĶä»¥ä¸ĭéĹ®é¢ĺ": 6741,
      "æ¢ģ": 6742,
      "çĶ¨æĪ·è¾ĵåħ¥": 6743,
      "éħ¸å¥¶": 6744,
      "ç®Ģæ´ģæĺİäºĨ": 6745,
      "çļĦæµ·æ»©": 6746,
      "lish": 6747,
      "å¥½åĥı": 6748,
      "åĲĲ": 6749,
      "ä½Ĩåľ¨": 6750,
      "Ex": 6751,
      "å°Ĩä¸ĭåĪĹ": 6752,
      "æłĩçĤ¹ç¬¦åı·": 6753,
      "åİŁåı¥": 6754,
      "Ġday": 6755,
      "åĪĿåŃ¦èĢħ": 6756,
      "çļĦæ¦Ĥçİĩ": 6757,
      "æĺĨèĻ«": 6758,
      "çŃĽéĢī": 6759,
      "æĪĳæľīä¸Ģä¸ª": 6760,
      "çļĦç¡": 6761,
      "æŃ£ä¼ł": 6762,
      "çĶ³è¯·": 6763,
      "åģļå¥½": 6764,
      "éĢīé¡¹ä¸ŃéĢīæĭ©": 6765,
      "å¼¯": 6766,
      "èĢĮä¸į": 6767,
      "åĲ¦åĪĻ": 6768,
      "äººæĢ§": 6769,
      "ä½Ĩå®ĥ": 6770,
      "ä¸ĸçķĮä¸Ĭ": 6771,
      "ix": 6772,
      "Ã¨": 6773,
      "Ġus": 6774,
      "å¤ªæ£Ĵ": 6775,
      "çļĦäººçĶŁ": 6776,
      "ç»¼ä¸Ĭ": 6777,
      "çĽ¸éģĩ": 6778,
      "éĿŀæ³ķ": 6779,
      "éŁ¿": 6780,
      "åĪĳ": 6781,
      "æľīçĽĬ": 6782,
      "æĮ¯": 6783,
      "å¾Īä¸įéĶĻ": 6784,
      "çº¢çĥ§": 6785,
      "æŃĮæīĭ": 6786,
      "æħİ": 6787,
      "ä¹Ķæ²»": 6788,
      "ful": 6789,
      "åĲĥæİī": 6790,
      "æĪĲåĬŁåľ°": 6791,
      "åı¯ä»¥çĶ¨æĿ¥": 6792,
      "ä»¥ä¸ĭæ®µèĲ½": 6793,
      "æ°Ķè´¨": 6794,
      "æ¯ıåĳ¨": 6795,
      "èµ·äºĨ": 6796,
      "åĹ¯": 6797,
      "åĴĮå®īåħ¨": 6798,
      "æłĸ": 6799,
      "ç¬¬ä¸Ģæ¬¡": 6800,
      "æģĲé¾Ļ": 6801,
      "æĩĴçĭĹ": 6802,
      "ä»¥åħ¶": 6803,
      "è¯Ńä¹ī": 6804,
      "Ġsome": 6805,
      "å¤ĩåıĹ": 6806,
      "æĽ´æŃ£": 6807,
      "æ¯ıä¸Ģ": 6808,
      "ç«ĭåį³": 6809,
      "çłĶç©¶è¡¨æĺİ": 6810,
      "æĺ¨æĻļ": 6811,
      "åıī": 6812,
      "åĴĮæĶ¯æĮģ": 6813,
      "å¿ĺè®°": 6814,
      "è¡¥åħħ": 6815,
      "å¤ªæ£ĴäºĨ": 6816,
      "ç»½": 6817,
      "èĥ½å¤Łåľ¨": 6818,
      "èĭ±æĸĩåįķè¯į": 6819,
      "çļĦä¸»æĹ¨": 6820,
      "ãĢĭ-": 6821,
      "ä¸ĸçķĮçļĦ": 6822,
      "çĽĳçĿ£": 6823,
      "ä¸įå¾Ĺ": 6824,
      "ä¼ļå¯¼èĩ´": 6825,
      "çļĦç³ĸæŀľæķ°": 6826,
      "Google": 6827,
      "è¡°": 6828,
      "åı¯ä»¥çĶ¨äºİ": 6829,
      "åĪ°æĿ¥": 6830,
      "ç¢ĳ": 6831,
      "äºĳè®¡ç®Ĺ": 6832,
      "ä¸įä»ħä»ħ": 6833,
      "rain": 6834,
      "è¡¨è¿°": 6835,
      "éĢĤå®ľ": 6836,
      "åŁİåł¡": 6837,
      "ç§ĭé£İ": 6838,
      "å¹ħçĶ»": 6839,
      "çļĦçľĭæ³ķ": 6840,
      "54": 6841,
      "çĤ¹åĩ»": 6842,
      "åıĳéĢģ": 6843,
      "å¸ħæ°Ķ": 6844,
      "ä¸Ģè¾Ĩ": 6845,
      "æ¡Ĩæŀ¶": 6846,
      "åİ¿": 6847,
      "åľ°ä½į": 6848,
      "ç¿¼": 6849,
      "åĳ½ä»¤": 6850,
      "æ¯ĶèĲ¨": 6851,
      "æķ°æį®åĴĮ": 6852,
      "éĶĻè¿ĩ": 6853,
      "çĻ¾å¹´": 6854,
      "now": 6855,
      "è£¤åŃĲ": 6856,
      "æ²Ļæ»©ä¸Ĭ": 6857,
      "æī©å±ķ": 6858,
      "æĺĵäºİçĲĨè§£": 6859,
      "æ²¡æľīä»»ä½ķ": 6860,
      "é±¼ç±»": 6861,
      "åħįè´¹": 6862,
      "åİĭåĬĽåĴĮ": 6863,
      "æ´¾å¯¹": 6864,
      "GPTæ¨¡åŀĭ": 6865,
      "éĹ°å¹´": 6866,
      "æĤŁ": 6867,
      "å°±èĥ½": 6868,
      "è§£éĩĬä»Ģä¹Īæĺ¯": 6869,
      "å¹¶çĶ¨": 6870,
      "å¿ĥæĢģ": 6871,
      "éħµ": 6872,
      "éħįæĸ¹": 6873,
      "æĭĨ": 6874,
      "è®©æĤ¨": 6875,
      "å°½å¿«": 6876,
      "çĹħäºº": 6877,
      "çĽ¸åĲĮçļĦ": 6878,
      "å±ķçİ°äºĨ": 6879,
      "èĬĴæŀľ": 6880,
      "Ġvery": 6881,
      "åĴĮä»ĸçļĦ": 6882,
      "ä»¥æıĲé«ĺ": 6883,
      "äººç±»æ´»åĬ¨": 6884,
      "ä¹ĺåĿĲ": 6885,
      "çļĦç¬Ķ": 6886,
      "è¿ĩäºİ": 6887,
      "éĩįåĬĽ": 6888,
      "ï¼ļ\"))": 6889,
      "ıè§Ī": 6890,
      "æĺı": 6891,
      "å°Ĩè¿ĻäºĽ": 6892,
      "è®¤çľŁ": 6893,
      "æĴŃæĶ¾": 6894,
      "æľīæĦıä¹ī": 6895,
      "è¿Ļä»¶": 6896,
      "ä¸ĭåĳ¨": 6897,
      "éĿ¢è¯ķ": 6898,
      "çİ°åľº": 6899,
      "æŃ¤æĹ¶": 6900,
      "åķ¤": 6901,
      "å¸®ä½ł": 6902,
      "å¸®åĬ©ä½ł": 6903,
      "Ġ<": 6904,
      "ä¹Łåľ¨": 6905,
      "Ġno": 6906,
      "åľ°çĲĥä¸Ĭ": 6907,
      "çŁ³å¤´": 6908,
      "å¤º": 6909,
      "çĸ¼": 6910,
      "å±ħä½ı": 6911,
      "è´·": 6912,
      "èĻ¹": 6913,
      "æ·±å¤Ħ": 6914,
      "åĽĽåŃ£": 6915,
      "åĭº": 6916,
      "çļĦæ²»": 6917,
      "ä¸ªåŃĹ": 6918,
      "ç¾İè§Ĥ": 6919,
      "è¿ĳæľŁ": 6920,
      "çļĦç»ıåħ¸": 6921,
      "åŀĭçĶ·": 6922,
      "ç»ĺçĶ»": 6923,
      "kg": 6924,
      "é¢ĺæĿĲ": 6925,
      "æįī": 6926,
      "æ°´åĪĨ": 6927,
      "éĤ£åıª": 6928,
      "åı¯å¾Ĺ": 6929,
      "åĪĨæĶ¯": 6930,
      "å¯ĤéĿĻ": 6931,
      "åľ¨åħ¬åĽŃéĩĮ": 6932,
      "åı¯åı£": 6933,
      "èµ«": 6934,
      "åĨĻè¯Ĺ": 6935,
      "Je": 6936,
      "ais": 6937,
      "å½»": 6938,
      "Ġbook": 6939,
      "Ġfiel": 6940,
      "Pythonä»£çłģ": 6941,
      "çļĦæĳĦ": 6942,
      "Ø¯": 6943,
      "çĢ": 6944,
      "éĵľ": 6945,
      "åģļäºĨ": 6946,
      "ĠAI": 6947,
      "ife": 6948,
      "åĩīçĪ½": 6949,
      "çļĦæ³¨": 6950,
      "ien": 6951,
      "è¿Ļä¹Ł": 6952,
      "ä½łè§īå¾Ĺ": 6953,
      "èĦĬ": 6954,
      "æ¾Ī": 6955,
      "æĸ°éĹ»æłĩé¢ĺ": 6956,
      "ä»İå°ıåĪ°": 6957,
      "64": 6958,
      "æĽ´åħ·ä½ĵ": 6959,
      "éĢļçŁ¥": 6960,
      "åī©ä¸ĭçļĦ": 6961,
      "è¾ħåĬ©": 6962,
      "éĺ¿çĶĺæŃ£ä¼ł": 6963,
      "Ðº": 6964,
      "Ġå¤§": 6965,
      "ink": 6966,
      "Ġper": 6967,
      "å¿ĥçĲĨåģ¥åº·": 6968,
      "çĲĨå¿µ": 6969,
      "æľºæ¢°": 6970,
      "åºĻ": 6971,
      "ä¸įåıĺ": 6972,
      "å¿į": 6973,
      "æĺ¯ä¸Ģå®¶": 6974,
      "çļĦæ¯ĶèµĽ": 6975,
      "çļĦå®ļä¹ī": 6976,
      "åĴĮå»ºè®®": 6977,
      "ä¸¤åıª": 6978,
      "åħ¨åĽ½": 6979,
      "åı¦ä¸Ģç§į": 6980,
      "åĨ°åĿĹ": 6981,
      "åįĪé¤Ĳ": 6982,
      "çļĦç¬ĳè¯Ŀ": 6983,
      "sort": 6984,
      "æĦŁåı¹": 6985,
      "èĤĿ": 6986,
      "æ¸ħçĪ½": 6987,
      "ĠChinese": 6988,
      "æĪĳçİ°åľ¨": 6989,
      "æ»¨": 6990,
      "å¹²çĩ¥": 6991,
      "åı¯ä»¥å¾Ĺåĩº": 6992,
      "åĿ¡": 6993,
      "ç©¿ä¸Ĭ": 6994,
      "åĬ¨æĢģ": 6995,
      "éĴĵ": 6996,
      "çĸı": 6997,
      "éĢīæĭ©ä¸Ģä¸ª": 6998,
      "é¥®çĶ¨": 6999,
      "éĿ¢ç§¯ä¸º": 7000,
      "æĶ¾æĿ¾èº«å¿ĥ": 7001,
      "æĴ°åĨĻ": 7002,
      "æľĢéĢĤåĲĪ": 7003,
      "åģ¥èº«æĪ¿": 7004,
      "åĲİæŀľ": 7005,
      "æĺŁç©º": 7006,
      "ç²Ĺ": 7007,
      "Ġà®": 7008,
      "ĽçĽ¾": 7009,
      "itt": 7010,
      "æļĳ": 7011,
      "æĢĿå¿µ": 7012,
      "ä½łçļĦåĽŀçŃĶ": 7013,
      "Ġeat": 7014,
      "çļĦè¯Ĺ": 7015,
      "è¾Ĳ": 7016,
      "Ġtoday": 7017,
      "åķ¤éħĴ": 7018,
      "èĩ´åĬĽäºİ": 7019,
      "èīºæľ¯åĵģ": 7020,
      "åįıè°ĥ": 7021,
      "çĩķéº¦": 7022,
      "42": 7023,
      "xx": 7024,
      "èĬ¯": 7025,
      "åĲ«éĩı": 7026,
      "é¦Ļåĳ³": 7027,
      "æľĢå¤§åĢ¼": 7028,
      "å¤ķéĺ³": 7029,
      "æ·±åĳ¼åĲ¸": 7030,
      "åģļä»Ģä¹Ī": 7031,
      "çļĦæĭ¼åĨĻ": 7032,
      "æĿ¥äºĨ": 7033,
      "æ¯ıä¸ªå°ıæľĭåıĭ": 7034,
      "çīĽé¡¿": 7035,
      "çĪ¶æ¯į": 7036,
      "çŃĴ": 7037,
      "è¯·æĤ¨": 7038,
      "æ¬¢ä¹Ĳ": 7039,
      "èº«æĿĲ": 7040,
      "éĤĦ": 7041,
      "ç¢±": 7042,
      "åıĳè¡¨": 7043,
      "éĹ®é¢ĺåĴĮ": 7044,
      "ç½Ĳ": 7045,
      "å®ĿèĹı": 7046,
      "æĽ¿ä»£": 7047,
      "çļĦæŃĮè¯į": 7048,
      "å°¾å·´": 7049,
      "èµ¢å¾ĹäºĨ": 7050,
      "æķĻåŃ¦": 7051,
      "æŀ¯": 7052,
      "å¤§æµ·": 7053,
      "éľĢè¦ģåľ¨": 7054,
      "è·¯ç¨ĭ": 7055,
      "å¦ĤæŀľæĤ¨åĸľæ¬¢": 7056,
      "éĩĩçĶ¨äºĨ": 7057,
      "çļĦæĻ¯è±¡": 7058,
      "çļĦéĩįéĩı": 7059,
      "Ġstr": 7060,
      "çŀ¬éĹ´": 7061,
      "ha": 7062,
      "å°ıæķ°": 7063,
      "å°ıéķĩ": 7064,
      "ç«Ł": 7065,
      "å¢ŀæ·»": 7066,
      "æĹłæ³ķç¡®å®ļ": 7067,
      "çĥ¤çĽĺ": 7068,
      "çļĦç½ĳç«Ļ": 7069,
      "çļĦæĶ¹": 7070,
      "æĪĳå¯¹": 7071,
      "ä¸ĭåİ»": 7072,
      "ä¸įå¤Ł": 7073,
      "è¿Ļä¸ªæĸĩæľ¬": 7074,
      "ory": 7075,
      "åĲĦèĩª": 7076,
      "ä¾¿æį·": 7077,
      "ç©¿è¿ĩ": 7078,
      "åĿļæŀľ": 7079,
      "ĠJohn": 7080,
      "æĮĩå®ļçļĦ": 7081,
      "èįīåľ°ä¸Ĭ": 7082,
      "æľīå¤ļ": 7083,
      "çĮĽ": 7084,
      "çĻ½äºĳ": 7085,
      "å¾Īéļ¾": 7086,
      "æµģè¡ĮçļĦ": 7087,
      "ek": 7088,
      "ĠæľĢåĲİ": 7089,
      "åĴĮä¸Ģ": 7090,
      "ï¼Ł\"": 7091,
      "è¯¥çĶµå½±": 7092,
      "èĥĸ": 7093,
      "åħ¶ä»ĸçļĦ": 7094,
      "éĽĨåĲĪ": 7095,
      "æ±Ĺ": 7096,
      "è´¨æĦŁ": 7097,
      "æįŁå¤±": 7098,
      "ĠX": 7099,
      "æĢ§æł¼": 7100,
      "Ġapp": 7101,
      "å®ĮåĸĦ": 7102,
      "é©¬æĭī": 7103,
      "ä»İä¸Ń": 7104,
      "çĶ¨æĪ·çļĦ": 7105,
      "èªª": 7106,
      "å£®è§Ĥ": 7107,
      "Ùĩ": 7108,
      "åħļ": 7109,
      "ç»ĵæŀĦåĴĮ": 7110,
      "æŁ±": 7111,
      "åŀĭåı·": 7112,
      "æĵħ": 7113,
      "ç¡¬å¸ģ": 7114,
      "æĥ°": 7115,
      "åĲİçļĦåı¥åŃĲ": 7116,
      "èıľè°±": 7117,
      "èļģ": 7118,
      "çļĦçĶŁæ´»æĸ¹å¼ı": 7119,
      "å«Į": 7120,
      "86": 7121,
      "ä¼łè¯´": 7122,
      "æĪĳæľĢè¿ĳ": 7123,
      "é£İæļ´": 7124,
      "åħ·ä½ĵæĿ¥è¯´": 7125,
      "å¯¿åı¸": 7126,
      "çļĨ": 7127,
      "èĩĤ": 7128,
      "é¡ºåºıæİĴåĪĹ": 7129,
      "èĪªç©º": 7130,
      "åĩłå¹´": 7131,
      "ä¸Ńä½įæķ°": 7132,
      "èĭį": 7133,
      "Ġau": 7134,
      "åİĨç¨ĭ": 7135,
      "çĽ¸åħ³çļĦéĹ®é¢ĺ": 7136,
      "æĺİæľĪ": 7137,
      "Ġtext": 7138,
      "çĥģ": 7139,
      "èĲ§": 7140,
      "æ©Ł": 7141,
      "å¥ĩæĢª": 7142,
      "æ¹¿åº¦": 7143,
      "è¾Ĳå°Ħ": 7144,
      "è§£é¢ĺ": 7145,
      "éĴ»": 7146,
      "49": 7147,
      "æĪĳä»¬è¦ģ": 7148,
      "ä¹ĭä½ľ": 7149,
      "åĲİæĿ¥": 7150,
      "è¢Ń": 7151,
      "æĹ¥å¸¸çĶŁæ´»": 7152,
      "çļĦæĤ": 7153,
      "æķ°çĻ¾": 7154,
      "éļĨ": 7155,
      "ç»ĵå°¾": 7156,
      "ress": 7157,
      "913": 7158,
      "æīĳ": 7159,
      "å¸¦æĿ¥çļĦ": 7160,
      "åĩĨå¤ĩå¥½": 7161,
      "çªĹæĪ·": 7162,
      "åħģè®¸": 7163,
      "åĴĮæ²»çĸĹ": 7164,
      "åŃķ": 7165,
      "å¾¡": 7166,
      "æĦŁçŁ¥": 7167,
      "éľĢè¦ģæĶ¯ä»ĺ": 7168,
      "åĮĸå¦Ĩ": 7169,
      "Â¥": 7170,
      "å®ı": 7171,
      "å®ĹæķĻ": 7172,
      "Ã¤": 7173,
      "æ´¥": 7174,
      "èº«ä½ĵåĴĮ": 7175,
      ")-": 7176,
      "77": 7177,
      "ä¿¡çĶ¨": 7178,
      "åħīåĲĪ": 7179,
      "×ķ": 7180,
      "è¯ŀ": 7181,
      "çĲĨæĥ³": 7182,
      "çļĦæ¯Ľ": 7183,
      "æīĭä¸Ń": 7184,
      "åĽ´ç»ķ": 7185,
      "åħ¨çĲĥèĮĥåĽ´åĨħ": 7186,
      "éĹªçĥģ": 7187,
      "é»Ħéĩĳ": 7188,
      "åı°çģ£": 7189,
      "æ¯ıå°ıæĹ¶": 7190,
      "è´¨æķ°": 7191,
      "å¹¿æ³ĽçļĦåºĶçĶ¨": 7192,
      "ç¾¤ä½ĵ": 7193,
      "che": 7194,
      "Ġå¥¹": 7195,
      "å¦®": 7196,
      "åħ¥äºĨ": 7197,
      "åıĹä¼¤": 7198,
      "æĿİåįİ": 7199,
      "è¶ĬæĿ¥è¶Ĭå¤ļ": 7200,
      "è¿Ļè¡¨æĺİ": 7201,
      "çĽİ": 7202,
      "å¥½æľĭåıĭ": 7203,
      "åĲĳåīį": 7204,
      "ç§ĭåĨ¬": 7205,
      "llo": 7206,
      "åįıä½ľ": 7207,
      "çļĦæ½ľ": 7208,
      "ĠÎ": 7209,
      "çĶ¨é¤Ĳ": 7210,
      "åıĹåĪ°äºĨ": 7211,
      "è¿Ĳè¾ĵ": 7212,
      "ç©ºæ°Ķä¸Ń": 7213,
      "åħ¼": 7214,
      "å¾ŀ": 7215,
      "å¥½åĲĥ": 7216,
      "å¤±èĲ½": 7217,
      "ä¸ĸçķĮåĲĦåľ°": 7218,
      "éħįåĲĪ": 7219,
      "æ¶Īå¤±": 7220,
      "çĽ¸å¯¹è®º": 7221,
      "form": 7222,
      "æĹħæ¸¸çĽ®çļĦåľ°": 7223,
      "ä¼Łå¤§çļĦ": 7224,
      "gh": 7225,
      "çļĦçī©åĵģ": 7226,
      "è¡ĮçļĦ": 7227,
      "ä½ľä¸ºAIè¯Ńè¨Ģæ¨¡åŀĭ": 7228,
      "çºªå¿µ": 7229,
      "è¿Ļå°±æĺ¯": 7230,
      "åĲİçļĦæĸĩæľ¬": 7231,
      "ç¢°": 7232,
      "èĲ¥éĢł": 7233,
      "æ¯¯": 7234,
      "æĪĸçŁŃè¯Ń": 7235,
      "æ°Ķè±¡": 7236,
      "æ¸©æŁĶ": 7237,
      "çļĦä¸įåĲĮ": 7238,
      "åįī": 7239,
      "æĺ¯ä¸ª": 7240,
      "éļĬ": 7241,
      "é²ľèĬ±": 7242,
      "æĦŁåıĹåĪ°äºĨ": 7243,
      "è°ĥåĳ³æĸĻ": 7244,
      "åı¯èĥ½ä¼ļå¯¼èĩ´": 7245,
      "ä¸Ńåįİ": 7246,
      "åĬ¨çĶ»": 7247,
      "è£ħå¤ĩ": 7248,
      "æ¹Ľ": 7249,
      "å®³æĢķ": 7250,
      "ily": 7251,
      "åıĭæĥħ": 7252,
      "Ġcl": 7253,
      "æĶ¶åĪ°": 7254,
      "ç¾İåĽ½æĢ»ç»Ł": 7255,
      "åı¯è¯»": 7256,
      "ç³Ł": 7257,
      "åĸľæĤ¦": 7258,
      "è¿ŀç»Ń": 7259,
      "æīĩ": 7260,
      "å¤ļæ¬¡": 7261,
      "è§£è¯»": 7262,
      "æĸĩç«łåĨħå®¹": 7263,
      "æĲľç´¢å¼ķæĵİ": 7264,
      "éĢļè¿ĩå¯¹": 7265,
      "ç»¼ä¸ĬæīĢè¿°": 7266,
      "æĪĳåĴĮ": 7267,
      "æ¯ıç»Ħ": 7268,
      "ç¿»è¯ĳæĪĲèĭ±è¯Ń": 7269,
      "å¾ĭå¸Ī": 7270,
      "å¥Ķè·ĳ": 7271,
      "è¿Ļæĺ¯ä¸Ģéĥ¨": 7272,
      "æ¯ķä¸ļ": 7273,
      "me": 7274,
      "å°Ĩä¸Ģä¸ª": 7275,
      "èĩªè½¬": 7276,
      "å®¶åĽŃ": 7277,
      "Ġ17": 7278,
      "å¦Ĥä½ķä½¿çĶ¨": 7279,
      "nglish": 7280,
      "lst": 7281,
      "ree": 7282,
      "æĪĲä¸ºä¸Ģä¸ª": 7283,
      "å¤§æ°Ķå±Ĥ": 7284,
      "ä»£æĽ¿": 7285,
      "éĴ¥": 7286,
      "è¨Ń": 7287,
      "å¼ķå¯¼": 7288,
      "åĪĨç»Ļä»ĸçļĦ": 7289,
      "éĢĶä¸Ń": 7290,
      "æĪĳåİ»": 7291,
      "å¾Īå¤§çļĦ": 7292,
      "Ġå°ıæĺİ": 7293,
      "éľŀ": 7294,
      "è¡Ģç®¡": 7295,
      "çļĦæľĢä½³": 7296,
      "æµıè§Ī": 7297,
      "åĲĮä¸Ģ": 7298,
      "ä¸¤ä¸ªäºº": 7299,
      "æĪĳä»¬åı¯ä»¥éĢļè¿ĩ": 7300,
      "Ġout": 7301,
      "çļĦåħĥç´ł": 7302,
      "çļĦä¸ľè¥¿": 7303,
      "æĪĲè¯Ń": 7304,
      "ata": 7305,
      "led": 7306,
      "èįīåľ°": 7307,
      "çļĦæ°ĶåĢĻ": 7308,
      "èı²å°Ķéĵģå¡Ķ": 7309,
      "ier": 7310,
      "éĢĽ": 7311,
      "å½±éŁ¿": 7312,
      "æ¯Ķåĸ»": 7313,
      "å¤ĸæĺŁ": 7314,
      "è¥¿åħ°": 7315,
      "æī©å¤§": 7316,
      "é¢¨": 7317,
      "ç¾İæ´²": 7318,
      "éĥ½å¾Ī": 7319,
      "æľĭåıĭä»¬": 7320,
      "éħįç½®": 7321,
      "èµĦäº§": 7322,
      "äºķ": 7323,
      "ä¸ªå°ıæľĭåıĭ": 7324,
      "æĺ¯ä¸Ģé¡¹": 7325,
      "åı¯èĥ½éľĢè¦ģ": 7326,
      "å®¢è§Ĥ": 7327,
      "çļĦçľ¼çĿĽ": 7328,
      "æľ±": 7329,
      "ä»»æĦı": 7330,
      "éħ±æ²¹": 7331,
      "ç»½æĶ¾": 7332,
      "çıĬ": 7333,
      "åŃĹçļĦ": 7334,
      "è¿ĺè¦ģ": 7335,
      "æ¼ĶåĶ±": 7336,
      "çļĦçı": 7337,
      "åħ¶ä¸ŃæľĢ": 7338,
      "æĥĬåı¹": 7339,
      "çļĦç¤¼çī©": 7340,
      "Ġabout": 7341,
      "ä½Ĩä¸į": 7342,
      "æ¿ĢåĬ±": 7343,
      "çĶŁçī©åŃ¦": 7344,
      "åĴĮæµ·": 7345,
      "åı¯ä»¥æıĲä¾Ľ": 7346,
      "äºĭä¸ļ": 7347,
      "Ġ21": 7348,
      "æĳ¸": 7349,
      "å¥ĩå¹»": 7350,
      "çļĦæĬ«èĲ¨": 7351,
      "ec": 7352,
      "æĽ´å¥½åľ°äºĨè§£": 7353,
      "èĥľåľ°": 7354,
      "æĤłä¹ħ": 7355,
      "çļĦè¡£æľį": 7356,
      "å½°": 7357,
      "ä½łæľīä»Ģä¹Ī": 7358,
      "è¯¥éĹ®é¢ĺ": 7359,
      "çļĦåĪĹè¡¨": 7360,
      "æĿı": 7361,
      "å°ıç»Ħ": 7362,
      "èī²è°ĥ": 7363,
      "çĭ¬èĩª": 7364,
      "æĤĦ": 7365,
      "è·Į": 7366,
      "èĩªçĦ¶çķĮ": 7367,
      "åįĹäº¬": 7368,
      "è¯·åĽŀçŃĶä¸ĭéĿ¢çļĦéĹ®é¢ĺ": 7369,
      "çļĦæ»": 7370,
      "ä¸Ģä¸ªéĹ®é¢ĺ": 7371,
      "èĢĥèĻĳåĪ°": 7372,
      "é¡µéĿ¢": 7373,
      "ok": 7374,
      "ç¨Ģ": 7375,
      "ç¬Ķè®°æľ¬": 7376,
      "way": 7377,
      "åĴĮçİ¯å¢ĥ": 7378,
      "ä»¥åĲİ": 7379,
      "æ¸ħæ¾Ī": 7380,
      "åĩłç§į": 7381,
      "å¹¿åľº": 7382,
      "ä¹ĺç§¯": 7383,
      "ä»Ķç»Ĩ": 7384,
      "åĪĩæĪĲå°ıåĿĹ": 7385,
      "string": 7386,
      "BA": 7387,
      "æĺ¯äººç±»": 7388,
      "åĮĸç®Ģ": 7389,
      "ä¿ĿæĬ¤çİ¯å¢ĥ": 7390,
      "è¿Ļé¦ĸæŃĮ": 7391,
      "æĲºå¸¦": 7392,
      "äººéĻħ": 7393,
      "éľĢè¦ģæĪĳ": 7394,
      "å®ŀæľ¨": 7395,
      "åĮĸåŃ¦åıįåºĶ": 7396,
      "65": 7397,
      "æķ°æį®ä¸Ń": 7398,
      "å¦ĤæŀľæĤ¨æĥ³": 7399,
      "æĩĴæĥ°": 7400,
      "åĬ£": 7401,
      "åħ¬ä¼Ĺ": 7402,
      "çľŁå¥½": 7403,
      "çŃīå¤ļç§į": 7404,
      "èĲĿ": 7405,
      "æĻºèĥ½åĮĸ": 7406,
      "è£¹": 7407,
      "æĺ¥èĬĤ": 7408,
      "åĳĬè¯īæĪĳä»¬": 7409,
      "æ¿Ģåıĳ": 7410,
      "Ġä¸Ń": 7411,
      "ç®Ĺåĩº": 7412,
      "åĨĻåĩº": 7413,
      "èŀįåĮĸ": 7414,
      "æĿ¥è¿Ľè¡Į": 7415,
      "æº¯": 7416,
      "å¥³ç¥ŀ": 7417,
      "æ¦Ĥçİĩ": 7418,
      "çĭ±": 7419,
      "èħº": 7420,
      "æľªæĿ¥åıĳå±ķ": 7421,
      "èĢģäºº": 7422,
      "æĿ¥æıĲé«ĺ": 7423,
      "è¿ĺæľīä¸ĢäºĽ": 7424,
      "ä¸įæĸŃåıĳå±ķ": 7425,
      "å¸ķ": 7426,
      "åĩłä¹İ": 7427,
      "å¤ıå¨ģ": 7428,
      "å¤ıå¨ģå¤·": 7429,
      "çļĦè¡¨çİ°": 7430,
      "ä¼ļå¯¹": 7431,
      "åĪĨç±»åĻ¨": 7432,
      "èµ°åľ¨": 7433,
      "çĶŁæĪĲä¸Ģä¸ªåĮħåĲ«": 7434,
      "é¢ĺçĽ®ä¸Ń": 7435,
      "è´¢å¯Į": 7436,
      "Ġlear": 7437,
      "æ¼Ķå¥ı": 7438,
      "æĪĳæĥ³äºĨè§£": 7439,
      "äºīè®®": 7440,
      "æĪĳåĸľæ¬¢åĲĥ": 7441,
      "Ġone": 7442,
      "ĠçĭĹ": 7443,
      "éģĭ": 7444,
      "éĶĻåĪ«": 7445,
      "åħ¬åħĥ": 7446,
      "ç´«èī²": 7447,
      "åį§å®¤": 7448,
      "anguage": 7449,
      "çļĦè¯įè¯Ń": 7450,
      "æĪĳæĺ¨å¤©": 7451,
      "åĦ¿åŃĲ": 7452,
      "å¸ĮèħĬ": 7453,
      "ç»ĦæĪĲéĥ¨åĪĨ": 7454,
      "æĸĲ": 7455,
      "åħ³éĹŃ": 7456,
      "åĪĽå§ĭ": 7457,
      "éĢīæĭ©éĢĤåĲĪ": 7458,
      "æĮĸæİĺ": 7459,
      "ux": 7460,
      "è¿Ļéĥ¨": 7461,
      "èĢĲçĶ¨": 7462,
      "å¼ķèµ·äºĨ": 7463,
      "ä¸ĺ": 7464,
      "é«ĺéĢŁ": 7465,
      "è¿ĻäºĽéĹ®é¢ĺ": 7466,
      "åħ§": 7467,
      "æ°ĶçĲĥ": 7468,
      "é¢Ŀå¤ĸ": 7469,
      "Ġfloat": 7470,
      "Le": 7471,
      "Ġä¸ªèĭ¹æŀľ": 7472,
      "é¢ĨåŁŁä¸Ń": 7473,
      "çļĦæĻļ": 7474,
      "æĪĴ": 7475,
      "ä»Ģä¹Īæł·çļĦ": 7476,
      "ç§ĳæĬĢçļĦ": 7477,
      "ract": 7478,
      "05": 7479,
      "der": 7480,
      "åħ¶å®ĥ": 7481,
      "ç½²": 7482,
      "é£İåĳ³": 7483,
      "æĺŁç³»": 7484,
      "æłĩæ³¨": 7485,
      "èĲ½åľ¨": 7486,
      "çĮ«åĴĮ": 7487,
      "åĶ®ä»·": 7488,
      "çĪ¸çĪ¸": 7489,
      "çļĦæ³ķå¾ĭ": 7490,
      "sh": 7491,
      "çļĦæĸĩåĮĸ": 7492,
      "æĪĳä»¬åľ¨": 7493,
      "åĶ¤": 7494,
      "åĴĮæĬĢæľ¯": 7495,
      "çļĦæµ·æ´ĭ": 7496,
      "åĽºå®ļ": 7497,
      "è¯·æł¹æį®": 7498,
      "åħ¬äº¤": 7499,
      "çļĦåŃ¦çĶŁ": 7500,
      "ä½łè®¤ä¸º": 7501,
      "ç¦»åŃĲ": 7502,
      "éĩĩåıĸè¡ĮåĬ¨": 7503,
      "cess": 7504,
      "ä¸ªæķ°": 7505,
      "æ¨¡æĭŁäººç±»": 7506,
      "cript": 7507,
      "åĴĮå·¥ä½ľ": 7508,
      "çĶµè¯Ŀåı·çłģ": 7509,
      "éĶĻåĪ«åŃĹ": 7510,
      "æ³Ħ": 7511,
      "éĤ£å¦Ĥæŀľ": 7512,
      "æĥ³åĪ°": 7513,
      "æħ°": 7514,
      "åĬłåħ¥ä¸ĢäºĽ": 7515,
      "å¼ķäººåħ¥": 7516,
      "Ġä¸Ģ": 7517,
      "çļĦè¯Ħä»·": 7518,
      "çļĦæĵ": 7519,
      "å±Ĭ": 7520,
      "ç»¿èī²çļĦ": 7521,
      "çļĦæ²»çĸĹ": 7522,
      "åĬłå·¥": 7523,
      "æĦŁæĥħ": 7524,
      "Ġart": 7525,
      "é£İéĽ¨": 7526,
      "ç²¾åĩĨ": 7527,
      "çĹĽèĭ¦": 7528,
      "äº¿ç¾İåħĥ": 7529,
      "Ġplay": 7530,
      "çıĤçıĤ": 7531,
      "ĠæĢ»": 7532,
      "ä¸Ģèĩ´": 7533,
      "è¾¨": 7534,
      "é¦ĻèĤł": 7535,
      "åĽ¾çīĩ": 7536,
      "ç§ĳåŃ¦å®¶ä»¬": 7537,
      "æĿ°åħĭ": 7538,
      "éĩĳæĺŁ": 7539,
      "ç«Ļåľ¨": 7540,
      "å©Ĩ": 7541,
      "Ġfields": 7542,
      "çļĦå¹´é¾Ħ": 7543,
      "ä¹Łæ²¡æľī": 7544,
      "å¾Īé«ĺåħ´": 7545,
      "æĺ¯ä¸Ģä¸ªéĿŀå¸¸": 7546,
      "å¤´åıĳ": 7547,
      "çļĦä¸»è¦ģè§ĤçĤ¹": 7548,
      "é»Ľçİī": 7549,
      "åľ¨è¿Ļç§įæĥħåĨµä¸ĭ": 7550,
      "åĴĮè¡Įä¸º": 7551,
      "çĶŁèıľ": 7552,
      "å¾ĪæĬ±æŃī": 7553,
      "çķĶ": 7554,
      "æĹłçº¿": 7555,
      "è½»ä¾¿": 7556,
      "èµĦéĩĳ": 7557,
      "è¿Ļæł·åı¯ä»¥": 7558,
      "ç¥Ŀç¦ı": 7559,
      "æĭħä»»": 7560,
      "åįĵè¶Ĭ": 7561,
      "çļĦæķĪæŀľ": 7562,
      "ä¸ªæ°´æŀľ": 7563,
      "äººåĴĮ": 7564,
      "ĠWorld": 7565,
      "æ²¿çĿĢ": 7566,
      "åľ°éĿ¢": 7567,
      "ert": 7568,
      "ä¿¡æģ¯åĴĮ": 7569,
      "à¤°": 7570,
      "é¸ŃåŃĲ": 7571,
      "ï¼ļï¼Ī": 7572,
      "èĢĮåľ¨": 7573,
      "Ġsentence": 7574,
      "åŃ£åº¦": 7575,
      "åıĳçĶŁåľ¨": 7576,
      "åĬłèµ·æĿ¥": 7577,
      "éĥ½éĿŀå¸¸": 7578,
      "ç»Ļå®ļä¸Ģç¯ĩæĸĩç«ł": 7579,
      "åĪĽä¸ļ": 7580,
      "æ³¨æĦıåĬĽ": 7581,
      "çļĦç¤¾äº¤": 7582,
      "Ġup": 7583,
      "èĪŁ": 7584,
      "çº¦ä¼ļ": 7585,
      "äººä»¬åľ¨": 7586,
      "ç¤¾ä¼ļçļĦ": 7587,
      "çĸ²åĬ³": 7588,
      "ug": 7589,
      "ä¸Ńä½¿çĶ¨": 7590,
      "åĪĨå¾Ĺ": 7591,
      "åº§ä½į": 7592,
      "æłĩåĩĨå·®": 7593,
      "MD": 7594,
      "ìĿ": 7595,
      "çļĦä¸¤ä¸ª": 7596,
      "ç¯ĩæĸĩç«ł": 7597,
      "äºĨä¸Ģåľº": 7598,
      "æ¹¾": 7599,
      "åį³åı¯äº«çĶ¨": 7600,
      "å¼ķäººåħ¥èĥľ": 7601,
      "ä½łä¹Łåı¯ä»¥": 7602,
      "çŃīå¤ļä¸ª": 7603,
      "ç»Ļåĩºä»¥ä¸ĭ": 7604,
      "å¯¼èĩ´äºĨ": 7605,
      "åĴ¬": 7606,
      "ä¸ĭè½½": 7607,
      "è¯¦ç»ĨåĽŀçŃĶ": 7608,
      "é²¨é±¼": 7609,
      "åıĺéĿ©": 7610,
      "ç»ĻæĪĳè®²ä¸Ģä¸ª": 7611,
      "æĺ¯åĲ¦ä¸º": 7612,
      "æĤ¨åı¯ä»¥ä½¿çĶ¨": 7613,
      "800": 7614,
      "¯æķĳ": 7615,
      "æľ´": 7616,
      "ank": 7617,
      "æĮĩæķ°": 7618,
      "è¡¨è¾¾æĸ¹å¼ı": 7619,
      "çļĦæĢĿèĢĥ": 7620,
      "BM": 7621,
      "ĠPython": 7622,
      "æģ¨": 7623,
      "èİ²": 7624,
      "Ġco": 7625,
      "ition": 7626,
      "è£ħä¿®": 7627,
      "æ¯įäº²": 7628,
      "ä»¥åħį": 7629,
      "æ¸ħåĩī": 7630,
      "Ġ->": 7631,
      "çĤºä»Ģéº¼": 7632,
      "è©¹": 7633,
      "çĻĮçĹĩ": 7634,
      "åıªéľĢè¦ģ": 7635,
      "åĳ½åĲį": 7636,
      "æħ¨": 7637,
      "ä¸ĭéĿ¢çļĦåı¥åŃĲ": 7638,
      "å¢ŀåĬłäºĨ": 7639,
      "çłĶåıĳ": 7640,
      "ike": 7641,
      "çļĦåı£æĦŁ": 7642,
      "åĴĮä¸º": 7643,
      "æĽ´æĺ¯": 7644,
      "ä¹ĲåĻ¨": 7645,
      "åĲĥé¥Ń": 7646,
      "èµ°è¿Ľ": 7647,
      "ä¸ĬçıŃ": 7648,
      "è¢«è§Ĩä¸º": 7649,
      "æķ°æį®è¿Ľè¡Į": 7650,
      "å¹¿æ³ĽçļĦ": 7651,
      "æ·±åĪ»çļĦ": 7652,
      "æľīäºĨ": 7653,
      "è¿Ļä¸īä¸ª": 7654,
      "è¯¥åı¥åŃĲ": 7655,
      "åĪ¶åĵģ": 7656,
      "åįļå®¢": 7657,
      "Ġu": 7658,
      "çļĦå±±": 7659,
      "è¦ģåİ»": 7660,
      "å°ıå¿ĥ": 7661,
      "é©¬å°Ķ": 7662,
      "å®Ŀçİī": 7663,
      "åĿļå®ļ": 7664,
      "ä¸ĢèĪ¬æĿ¥è¯´": 7665,
      "æĦıæĢĿæĺ¯": 7666,
      "5000": 7667,
      "ç¸": 7668,
      "çĶµå½±è¯Ħè®º": 7669,
      "åķĨåĵģæııè¿°": 7670,
      "ç§ĳæĬĢåħ¬åı¸": 7671,
      "æľīæĹ¶åĢĻ": 7672,
      "è¿Ļæĺ¯ä¸Ģç§į": 7673,
      "æ¡Ĥ": 7674,
      "æµ·å²¸": 7675,
      "é¸¡èĥ¸": 7676,
      "çªĥ": 7677,
      "ä¸ªä½ĵ": 7678,
      "åĭ¾": 7679,
      "åįĩèµ·": 7680,
      "âĦĥï¼Į": 7681,
      "å§¿åĬ¿": 7682,
      "å¹¶åĪĹåĩº": 7683,
      "åĮħè£ħ": 7684,
      "æķĻå¸Ī": 7685,
      "çļĦæĢĿæĥ³": 7686,
      "ä¾ł": 7687,
      "Ġtime": 7688,
      "çļĦæİ¨èįĲ": 7689,
      "éĢĥèĦ±": 7690,
      "å¥½åıĭ": 7691,
      "æĸ°æĬĢæľ¯": 7692,
      "æĹłæķ°": 7693,
      "Ġ23": 7694,
      "å¤įä»ĩ": 7695,
      "ãģ®": 7696,
      "å¦Ĥæŀľæľī": 7697,
      "Ġsa": 7698,
      "æııè¿°ä¸Ģç§į": 7699,
      "ä¸Ģæ®µè¯Ŀ": 7700,
      "Wh": 7701,
      "æĪĳçĪ±": 7702,
      "æĹ±": 7703,
      "æĭ¯æķĳ": 7704,
      "èµł": 7705,
      "æ¬¢å¿«": 7706,
      "ä½łåı¯ä»¥åľ¨": 7707,
      "å¥¥æĸ¯åį¡": 7708,
      "Ġä¸į": 7709,
      "æĪĲäºĨ": 7710,
      "éĢīçĶ¨": 7711,
      "ä¸ŃåĽ½åı¤ä»£": 7712,
      "èĢģæĿ¿": 7713,
      "St": 7714,
      "çļĦä¸Ń": 7715,
      "é¥º": 7716,
      "æħķ": 7717,
      "é¾Ł": 7718,
      "ä»ĸä»¬çļĦå¯¹è¯ĿåĨħå®¹": 7719,
      "å±ķç¤ºäºĨ": 7720,
      "Ð´": 7721,
      "å®¢æľį": 7722,
      "éļ¾åº¦": 7723,
      "áº": 7724,
      "Ġ\\\\": 7725,
      "çļĦè®¡ç®Ĺ": 7726,
      "åĪĨéļĶ": 7727,
      "å¸¸çĶ¨çļĦ": 7728,
      "é«ĺçº§": 7729,
      "æģ¼": 7730,
      "æĹ¥èĲ½": 7731,
      "åİŁä»·": 7732,
      "ä»·æł¼ä¸º": 7733,
      "ä¸ĭéĿ¢æĺ¯": 7734,
      "åıĺæĪĲäºĨ": 7735,
      "Ġ>": 7736,
      "åĲ´": 7737,
      "ä½łçŁ¥éģĵ": 7738,
      "ä»¥ä¸ĭæŃ¥éª¤": 7739,
      "ç¥ĸ": 7740,
      "çĥŃçĪ±": 7741,
      "éĿłè¿ĳ": 7742,
      "çľĭäºĨ": 7743,
      "çłĤ": 7744,
      "è¨Ī": 7745,
      "æµ·æĭĶ": 7746,
      "Ġbanana": 7747,
      "æĿĥåĪ©": 7748,
      "ä¸¥æł¼": 7749,
      "à¥į": 7750,
      "cl": 7751,
      "ä¸Ģä¸ªå°ı": 7752,
      "åķ¦": 7753,
      "ç»ĵå±Ģ": 7754,
      "åħĪå°Ĩ": 7755,
      "æ¸ħæĻ¨": 7756,
      "ä½Ĩå®ĥä»¬": 7757,
      "Ġdis": 7758,
      "åĽ¾å½¢": 7759,
      "èŃ¦æĸ¹": 7760,
      "æİ¨æĸŃåĩº": 7761,
      "è¿Ľè¡ĮæĥħæĦŁåĪĨç±»": 7762,
      "ä¸Ģå°ģ": 7763,
      "ä¿ĿåŃĺ": 7764,
      "æĬĬå®ĥä»¬": 7765,
      "å¹²æī°": 7766,
      "èĢ³æľº": 7767,
      "éľĢè¦ģçļĦ": 7768,
      "å¤ªéĺ³çļĦ": 7769,
      "å¹¿æ³ĽåºĶçĶ¨": 7770,
      "åı¯ä»¥ä»İ": 7771,
      "ç§ĳåĬ¨çī©": 7772,
      "åħ¶ä¸ŃåĮħåĲ«": 7773,
      "å¥ĩå¦Ļ": 7774,
      "ä¸įåģľ": 7775,
      "çŃīæĸ¹å¼ı": 7776,
      "å¸¸çĶ¨": 7777,
      "åİ»éĻ¤": 7778,
      "è¿ĻäºĽéĥ½æĺ¯": 7779,
      "å¯¹äºİç»Ļå®ļçļĦ": 7780,
      "è¡Ģåİĭ": 7781,
      "è§Ĥæµĭ": 7782,
      "åģļçļĦ": 7783,
      "Ġpre": 7784,
      "è§ĴèĲ½": 7785,
      "180": 7786,
      "ç½Ĺæĸ¯": 7787,
      "åĩłå¤©": 7788,
      "è´Ŀå°Ķ": 7789,
      "ĠYou": 7790,
      "åħ¬æŃ£": 7791,
      "ä½Ĩä¹Ł": 7792,
      "åĪĩç¢İ": 7793,
      "å¸ĮæľĽè¿ĻäºĽ": 7794,
      "é²ľèī³": 7795,
      "éĿĴæ¤Ĵ": 7796,
      "à¥ĩ": 7797,
      "èĬ±åĽŃéĩĮ": 7798,
      "çļĦæ©Ļ": 7799,
      "87": 7800,
      "æĽ´åħ·": 7801,
      "ç»ĵæŀľè¡¨æĺİ": 7802,
      "åĤ²": 7803,
      "numbers": 7804,
      "æľīçĶ¨": 7805,
      "èµ·åºĬ": 7806,
      "åĢ¼ä¸º": 7807,
      "å¤ªå¤ļ": 7808,
      "æĽ´å¤ļçļĦä¿¡æģ¯": 7809,
      "low": 7810,
      "å¥ĸé¡¹": 7811,
      "å·¥èµĦ": 7812,
      "åĸĤ": 7813,
      "èĬ±é¦Ļ": 7814,
      "åĿĩè¡¡": 7815,
      "çĦ¶åĲİåĨį": 7816,
      "åĲ¬éŁ³ä¹Ĳ": 7817,
      "çĶµåŃĲåķĨåĬ¡": 7818,
      "éĴ®": 7819,
      "å®¢äºº": 7820,
      "å¾Īå¤ļäºº": 7821,
      "åįģè¶³": 7822,
      "æľīäºĽäºº": 7823,
      "ä¹Łå°±æĺ¯è¯´": 7824,
      "çļĦåĪĨç±»": 7825,
      "åºŀ": 7826,
      "åħħçĶµ": 7827,
      "çļĦæ³¨æĦı": 7828,
      "çļĦå¤ľæĻļ": 7829,
      "åĲĪæĪĲ": 7830,
      "èª°": 7831,
      "è¿ģ": 7832,
      "åĬ¨æľº": 7833,
      "æĺ¯ä¸Ģåıª": 7834,
      "çĥŃéĩı": 7835,
      "èĪĴæľį": 7836,
      "æĳĩæ»ļ": 7837,
      "è®Ĭ": 7838,
      "æĢ§éĹ®é¢ĺ": 7839,
      "å¼ºçļĦ": 7840,
      "åĲįç§°åĴĮ": 7841,
      "Ġstud": 7842,
      "åħīåĲĪä½ľçĶ¨": 7843,
      "®æŀĹ": 7844,
      "å¹¶å¯¹": 7845,
      "æ²®": 7846,
      "?\"": 7847,
      "æ±º": 7848,
      "éĢīæīĭ": 7849,
      "riend": 7850,
      "èİİå£«": 7851,
      "æģ¯åľ°": 7852,
      "è®¾å®ļ": 7853,
      "æīĢä»¥ä»ĸ": 7854,
      "çĭĹçĭĹ": 7855,
      "ä¸ĵä¸ļçļĦ": 7856,
      "é¸¡èĥ¸èĤī": 7857,
      "ä¸Ģé¢Ĺ": 7858,
      "æĹ¦": 7859,
      "èµµ": 7860,
      "Ġac": 7861,
      "çĻ½å¤©": 7862,
      "è¡£çī©": 7863,
      "å¤§åĪ©äºļ": 7864,
      "åĲ¯åıĳ": 7865,
      "èİİå£«æ¯Ķäºļ": 7866,
      "æ¯ħ": 7867,
      "è¯·ä¸º": 7868,
      "éľĢè¦ģä½¿çĶ¨": 7869,
      "ä»¥ä¸ĭæĸĩç«ł": 7870,
      "æĹ¥èĩ³": 7871,
      "è¥¿åĵ¥": 7872,
      "åħ¸åŀĭ": 7873,
      "å¢¨è¥¿åĵ¥": 7874,
      "aime": 7875,
      "æĢ¡": 7876,
      "åĶ±æŃĮ": 7877,
      "çļĦæ£®æŀĹ": 7878,
      "æ°£": 7879,
      "æĿ¥ç¡®å®ļ": 7880,
      "èµ¤": 7881,
      "ç»Ļå®ļæĸĩæľ¬": 7882,
      "çļĦæŁĲ": 7883,
      "ä¸Ńæī¾åĪ°": 7884,
      "è¯ŃæĢģ": 7885,
      "å¹¿éĺĶ": 7886,
      "åĨ°å·Ŀ": 7887,
      "ä¾Ŀæį®": 7888,
      "çĨŁæĤī": 7889,
      "èļĤ": 7890,
      "çļĦæĵį": 7891,
      "åĵĢ": 7892,
      "èĢĮå¼Ĥ": 7893,
      "Ġwork": 7894,
      "è¿ľç¨ĭ": 7895,
      "æĿ¯ä¸Ń": 7896,
      "éĩİçĶŁåĬ¨çī©": 7897,
      "ç²ĴåŃĲ": 7898,
      "åĴĮä½¿çĶ¨": 7899,
      "æķ¸": 7900,
      "ä¿¯": 7901,
      "çĦ¡": 7902,
      "èĤ¢": 7903,
      "çĶŁæ´»çļĦ": 7904,
      "æĺ¯ä¸ºäºĨ": 7905,
      "è¦ģçĤ¹": 7906,
      "éľ¸": 7907,
      "èĩªçĦ¶çİ¯å¢ĥ": 7908,
      "èĵĿèİĵ": 7909,
      "åĩºçİ°æ¬¡æķ°": 7910,
      "çļĦçĪ¶": 7911,
      "çļĦè§£": 7912,
      "åħĦ": 7913,
      "æĭĴ": 7914,
      "çķı": 7915,
      "è¾ĥä½İ": 7916,
      "åĴĮæķ°æį®": 7917,
      "ical": 7918,
      "çĶ·å¥³": 7919,
      "à¸²": 7920,
      "éĢłæĪĲäºĨ": 7921,
      "æľīæīĢå¸®åĬ©": 7922,
      "çīµ": 7923,
      "æľĢé«ĺçļĦ": 7924,
      "éħ¥": 7925,
      "åĤ¬": 7926,
      "çľ¼åīį": 7927,
      "çĪ¬è¡Į": 7928,
      "çļĦæ¬¡": 7929,
      "ponse": 7930,
      "æ¡ĳ": 7931,
      "å½ĵä»£": 7932,
      "åĽłä¸ºæĪĳ": 7933,
      "éĢļå¸¸åľ¨": 7934,
      "ç³»ç»ŁçļĦ": 7935,
      "èŀº": 7936,
      "çļĦæİªæĸ½": 7937,
      "å°ıäºİ": 7938,
      "åĽłæĸ¯åĿ¦": 7939,
      "é»ŀ": 7940,
      "ç²ĺ": 7941,
      "èĮĤ": 7942,
      "åķıé¡Į": 7943,
      "æ¾³å¤§åĪ©äºļ": 7944,
      "æĦŁåĬ¨": 7945,
      "çĤ¹ç¼Ģ": 7946,
      "Ġè¡¨ç¤º": 7947,
      "å¥½å¥ĩ": 7948,
      "æ²Ĳ": 7949,
      "å¹´çº§": 7950,
      "åīįè¿Ľ": 7951,
      "ĠĠĠĠ": 7952,
      "è®²è¿°äºĨä¸Ģ": 7953,
      "æĥĬåĸľ": 7954,
      "æµĵç¼©": 7955,
      "åŀĥåľ¾éĤ®ä»¶": 7956,
      "èļĤèļģ": 7957,
      "æĪĳæĿ¥": 7958,
      "æŃ§": 7959,
      "éķ¿é¢Ī": 7960,
      "Ġpizza": 7961,
      "åıįè½¬": 7962,
      "æ¿Ģæĥħ": 7963,
      "æĵħéķ¿": 7964,
      "æľĢéĩįè¦ģçļĦ": 7965,
      "Ġtransl": 7966,
      "çģ«èħ¿": 7967,
      "è¿Ļç¯ĩæĸĩç«łä¸Ń": 7968,
      "æ¤ħåŃĲ": 7969,
      "æĿ¥çļĦ": 7970,
      "èĬĤçº¦": 7971,
      "èµ°è¿ĩ": 7972,
      "è·Łè¸ª": 7973,
      "çĽĳç®¡": 7974,
      "text": 7975,
      "çļĦä»£çłģ": 7976,
      "æĦŁåĨĴ": 7977,
      "æ¯Ķçī¹": 7978,
      "ç«ĭæĸ¹": 7979,
      "æķıæĦŁ": 7980,
      "åľ¨ç¾İåĽ½": 7981,
      "æĸĩçĮ®": 7982,
      "æŁı": 7983,
      "éĩĳé»Ħ": 7984,
      "å¼ķè¿°": 7985,
      "que": 7986,
      "åı¯åı¯": 7987,
      "åŃ¦éĻ¢": 7988,
      "æĺİæĺŁ": 7989,
      "åĨħåŃĺ": 7990,
      "æĬĬè¿ĻäºĽ": 7991,
      "åľŁæĺŁ": 7992,
      "æ²®ä¸§": 7993,
      "ä¸ªçĲĥ": 7994,
      "æµ¦": 7995,
      "ates": 7996,
      "å®Įç¾İçļĦ": 7997,
      "çħ§é¡¾": 7998,
      "åįĩåºı": 7999,
      "é£ŀç¿Ķ": 8000,
      "å®ĮæĪĲäºĨ": 8001,
      "æŀķ": 8002,
      "æ¨±": 8003,
      "çº¿ä¸Ĭ": 8004,
      "ç»ĻæĪĳä¸ĢäºĽ": 8005,
      "åĲ¸å¼ķåĬĽ": 8006,
      "åĽ¾åĥıè¯ĨåĪ«": 8007,
      "çļĦä½ľèĢħ": 8008,
      "åľ¨æłĳ": 8009,
      "ä¸»è§Ĥ": 8010,
      "ç»ıèĲ¥": 8011,
      "åŃĺåľ¨çļĦ": 8012,
      "è¡ĮæĶ¿": 8013,
      "éĶĪ": 8014,
      "èĢ³æľµ": 8015,
      "ÛĮ": 8016,
      "éľĢè¦ģçĶ¨": 8017,
      "å¦Ĥæŀľæĺ¯": 8018,
      "å§»": 8019,
      "èĬ±çĶŁ": 8020,
      "æ¼Ĩ": 8021,
      "åİŁæľ¬": 8022,
      "Ġdel": 8023,
      "åıĳçİ°èĩªå·±": 8024,
      "éľĢæ±ĤåĴĮ": 8025,
      "åı¯ä»¥å¸®åĬ©ä½ł": 8026,
      "ç³Łç³ķ": 8027,
      "ä¸ªé¸¡èĽĭ": 8028,
      "æľºéģĩ": 8029,
      "åħ¶ä»ĸäºº": 8030,
      "å¥¶æ³¡": 8031,
      "èµŀç¾İ": 8032,
      "çģ°èī²": 8033,
      "72": 8034,
      "åĴĮçĲĨè§£": 8035,
      "åĩŃ": 8036,
      "æĻĵ": 8037,
      "æ²«": 8038,
      "ç»ĨèıĮ": 8039,
      "å¾·è¯Ń": 8040,
      "è¿½æº¯": 8041,
      "å¼ķèµ·çļĦ": 8042,
      "å°ģéĹŃ": 8043,
      "çļĦä½ľåĵģ": 8044,
      "åĢº": 8045,
      "è°ĥçĶ¨": 8046,
      "åłª": 8047,
      "çµ±": 8048,
      "æĺİæĺ¾çļĦ": 8049,
      "åı¤èĢģçļĦ": 8050,
      "book": 8051,
      "çļĦçķ": 8052,
      "åĽłæŃ¤åı¯ä»¥": 8053,
      "ç»Ļå®ļä¸Ģæ®µæĸĩæľ¬": 8054,
      "éĢļå¸¸çĶ¨äºİ": 8055,
      "ä¿ĥéĶĢ": 8056,
      "æıĴåħ¥": 8057,
      "è¿Ľåı£": 8058,
      "å®¶ä¹¡": 8059,
      "æķ°åŃĹåĮĸ": 8060,
      "çļĦæĦŁæĥħ": 8061,
      "éĩĩåıĸæİªæĸ½": 8062,
      "éĹªèĢĢ": 8063,
      "çļĦåħ³éĶ®è¯į": 8064,
      "åĪ¶åº¦": 8065,
      "æŀģæĢ§": 8066,
      "å½Ĵçº³": 8067,
      "ç»ĻäºĨå°ıçº¢": 8068,
      "Ñĭ": 8069,
      "çļĦé«ĺåº¦": 8070,
      "åı¯è§Ĩ": 8071,
      "äºĨå¤ļå°ĳ": 8072,
      "çº¢çĲĥ": 8073,
      "Ġpo": 8074,
      "æīĢä»¥å°ıæĺİ": 8075,
      "èĵĿå¤©": 8076,
      "èµŀæī¬": 8077,
      "çļĦäººæķ°": 8078,
      "æİ¢æµĭ": 8079,
      "æ¯Ľè¡£": 8080,
      "çļĦæ±½": 8081,
      "æŀ«åı¶": 8082,
      "LE": 8083,
      "banana": 8084,
      "ä¸ºæĪĳä»¬": 8085,
      "å¤§å¤§": 8086,
      "å¤ĸéĥ¨": 8087,
      "ä½ľèĢħå¯¹": 8088,
      "åĪĽéĢłåĬĽ": 8089,
      "çĶ·çĶŁäººæķ°": 8090,
      "çļĦç²¾ç¥ŀ": 8091,
      "ä»¥å¸®åĬ©": 8092,
      "ãĢĤâĢĿâĢľ": 8093,
      "çģ«éĶħ": 8094,
      "èªŀ": 8095,
      "ai": 8096,
      "çļĦè¯Ħè®º": 8097,
      "å¼·": 8098,
      "æĽ´é«ĺçļĦ": 8099,
      "æĹłç©·": 8100,
      "å®īåħ¨åĴĮ": 8101,
      "ä»£è°¢": 8102,
      "ater": 8103,
      "ä¸¤ä¸ªæķ°åŃĹ": 8104,
      "éŁ³ä¹Ĳä¼ļ": 8105,
      "æİ¢ç©¶": 8106,
      "çģ«å±±": 8107,
      "èķ¾": 8108,
      "çļĦç³ĸæŀľæķ°éĩı": 8109,
      "æĺ¯æŃ£éĿ¢": 8110,
      "èĢĮéĹ»åĲį": 8111,
      "èĬ±å¼Ģ": 8112,
      "æĶ¯æĴĳ": 8113,
      "ä¸ĩåħĥ": 8114,
      "è¿Ļä¸¤ä¸ªåı¥åŃĲ": 8115,
      "ä¸įèī¯": 8116,
      "çī©æµģ": 8117,
      "åŃĹä½ĵ": 8118,
      "è¢«åĳĬ": 8119,
      "çĶµå½±éĻ¢": 8120,
      "å®¹åĻ¨": 8121,
      "ä¾ĿçĦ¶": 8122,
      "æī§å¯¼": 8123,
      "æŁłæª¬æ±ģ": 8124,
      "å¾ĴæŃ¥": 8125,
      "Î±": 8126,
      "ç»£": 8127,
      "éĽ»": 8128,
      "æ··åĲĪçī©": 8129,
      "è¿ĽåĪ¶": 8130,
      "erson": 8131,
      "çĮ´åŃĲ": 8132,
      "çļĦåģ¥åº·": 8133,
      "åĴĮèĶ¬èıľ": 8134,
      "è¿Ļæľ¬å°ıè¯´": 8135,
      "å¹´åīį": 8136,
      "ä»ĬæĻļ": 8137,
      "åįİä¸º": 8138,
      "å®īåħ¨æĢ§": 8139,
      "AIæĬĢæľ¯": 8140,
      "è®©æĪĳæĦŁåĪ°": 8141,
      "å·§åħĭåĬĽèĽĭç³ķ": 8142,
      "æµ·æ»©ä¸Ĭ": 8143,
      "å¤§åĨĻåŃĹæ¯į": 8144,
      "ï¿": 8145,
      "ä¼Ĳ": 8146,
      "å¤§éĥ¨åĪĨ": 8147,
      "çļĦçħ": 8148,
      "å®ĿçŁ³": 8149,
      "çļĦæľºä¼ļ": 8150,
      "æĪĳæľĢåĸľæ¬¢çļĦ": 8151,
      "æľĢåĪĿ": 8152,
      "ä¸¤ä½į": 8153,
      "ãĢĭ(": 8154,
      "åģļä¸Ģä¸ª": 8155,
      "é¦ĻæĸĻ": 8156,
      "å·´è¥¿": 8157,
      "è´¨éĩıåĴĮ": 8158,
      "ç¼ºå°ĳ": 8159,
      "æĬ¢": 8160,
      "æĽ´æį¢": 8161,
      "è¿Ļä¸ªåŁİå¸Ĥ": 8162,
      "éĩĳèī²": 8163,
      "èµ°åĲĳ": 8164,
      "åį°èĬ±": 8165,
      "è´¢äº§": 8166,
      "ç§ĳå¹»çĶµå½±": 8167,
      "co": 8168,
      "na": 8169,
      "çŃīä¿¡æģ¯": 8170,
      "å°½æĥħ": 8171,
      "çļĦæ²ŁéĢļ": 8172,
      "ç¾½æ¯Ľ": 8173,
      "å¸ĺ": 8174,
      "æĪĸä¸ŃæĢ§": 8175,
      "åĵĪåĵĪ": 8176,
      "èĨı": 8177,
      "æµ®å®«": 8178,
      "æĺĶ": 8179,
      "éĤ£ä¹Īçİ°åľ¨": 8180,
      "åıįå°Ħ": 8181,
      "æĶ¹åıĺäºĨ": 8182,
      "Ġwho": 8183,
      "Ġà¦": 8184,
      "çļĦåĬ¨ä½ľ": 8185,
      "æ¸ł": 8186,
      "ä¸»åĬ¨": 8187,
      "å¼Ģå±ķ": 8188,
      "ä»£è¯į": 8189,
      "ä¸ĵæ³¨äºİ": 8190,
      "éķ¿é¢Īé¹¿": 8191,
      "è¯Ī": 8192,
      "äº¤æį¢": 8193,
      "æĲŀ": 8194,
      "ä¹ĭä¸Ģæĺ¯": 8195,
      "éļ¾é¢ĺ": 8196,
      "å©ļå§»": 8197,
      "çĪ¶äº²": 8198,
      "She": 8199,
      "åĸľæ¬¢åľ¨": 8200,
      "å¿ħå¤ĩ": 8201,
      "çªģçł´": 8202,
      "________": 8203,
      "çºµ": 8204,
      "æ°´æĺŁ": 8205,
      "èĬ±åįī": 8206,
      "è±ļ": 8207,
      "æĬķåħ¥": 8208,
      "ĠDo": 8209,
      "åį¢æµ®å®«": 8210,
      "ä»ĸæĺ¯": 8211,
      "ä½łå¯¹": 8212,
      "æĽ´å¤§çļĦ": 8213,
      "æľºç¥¨": 8214,
      "åįķè¯įçļĦ": 8215,
      "çĶ»ä½ľ": 8216,
      "æľīæ°§": 8217,
      "à®¤": 8218,
      "æ·±è¿ľçļĦå½±åĵį": 8219,
      "å¾Ĳ": 8220,
      "çĪ±åĽłæĸ¯åĿ¦": 8221,
      "è¥¿äºļ": 8222,
      "çĽ´è§Ĵ": 8223,
      "åĤ³": 8224,
      "åĨ·åį´": 8225,
      "åģľè½¦": 8226,
      "éĢĶå¾Ħ": 8227,
      "åŁĥèı²å°Ķéĵģå¡Ķ": 8228,
      "ä¼ĺè´¨çļĦ": 8229,
      "åĵĪåĪ©æ³¢çī¹": 8230,
      "åĮºåĿĹéĵ¾æĬĢæľ¯": 8231,
      "éĻµ": 8232,
      "åĵģåĳ³": 8233,
      "æ¸©åĴĮ": 8234,
      "Ġwould": 8235,
      "åĩıç¼ĵ": 8236,
      "æķĻåłĤ": 8237,
      "×ķ×": 8238,
      "ä»¥åīį": 8239,
      "âĢĿï¼Ī": 8240,
      "è¯·è®¡ç®Ĺ": 8241,
      "æīĭæ³ķ": 8242,
      "ener": 8243,
      "åĩłä½ķ": 8244,
      "çļĦç©ºéĹ´": 8245,
      "79": 8246,
      "ä¸ŃçļĦä¸Ģä¸ª": 8247,
      "å¹¿å·ŀ": 8248,
      "ä¸»è¦ģè§ĤçĤ¹": 8249,
      "æĹ©æľŁ": 8250,
      "çļĦå¤©æ°ĶæĥħåĨµ": 8251,
      "æĺŁçĲĥå¤§æĪĺ": 8252,
      "æĬĵä½ı": 8253,
      "ï¼Ł\\": 8254,
      "æł¹æį®è¿Ļä¸ª": 8255,
      "å¤įåĲĪ": 8256,
      "éļĲèĹı": 8257,
      "ç¿ħèĨĢ": 8258,
      "å¼¥æ¼«": 8259,
      "çļĦæĵįä½ľ": 8260,
      "Apple": 8261,
      "æĸ¯æĭī": 8262,
      "å¤ªéĺ³ç³»ä¸Ń": 8263,
      "Ġë": 8264,
      "çļĦçŃĶæ¡Īæĺ¯": 8265,
      "å°ıçĨĬ": 8266,
      "å¤§è§Ħæ¨¡": 8267,
      "ä¸¤è¾¹": 8268,
      "å¸®å¿Ļ": 8269,
      "å±±æ°´": 8270,
      "æĵļ": 8271,
      "cat": 8272,
      "äººç¾¤": 8273,
      "å¦Ĥä»Ĭ": 8274,
      "æĪĳä»¬å¿ħé¡»": 8275,
      "ä¹ĭç¾İ": 8276,
      "è®©ä»ĸ": 8277,
      "Ġspe": 8278,
      "è¿ĲåĬ¨éŀĭ": 8279,
      "è¡Ĺå¤´": 8280,
      "å®¶åĴĮ": 8281,
      "éĽĢ": 8282,
      "åĲ¸å¼ķäºĨ": 8283,
      "åį±æľº": 8284,
      "åľ£æ¯į": 8285,
      "éŁ©åĽ½": 8286,
      "åĴĮå¯¹": 8287,
      "æľīå®³": 8288,
      "æ³ķéĻ¢": 8289,
      "è¿ľç¦»": 8290,
      "å¹³åĿĩæķ°": 8291,
      "åĪĽå§ĭäºº": 8292,
      "å¤ļåħĥ": 8293,
      "å¾Īé«ĺ": 8294,
      "çĪ·": 8295,
      "éĩĮæĸ¯": 8296,
      "æĹłæ¯Ķ": 8297,
      "hello": 8298,
      "åĲĳä¸Ĭ": 8299,
      "ings": 8300,
      "åıĺå¾Ĺè¶ĬæĿ¥è¶Ĭ": 8301,
      "æĢ»åħ±æľī": 8302,
      "åıĳå°Ħ": 8303,
      "å¥¹åľ¨": 8304,
      "åĲ¯ç¤º": 8305,
      "ck": 8306,
      "happy": 8307,
      "ä»¥éģ¿åħį": 8308,
      "2016": 8309,
      "äººä»¬å¯¹": 8310,
      "è®¡ç®Ĺæľºç¨ĭåºı": 8311,
      "åį«è¡£": 8312,
      "æķĳæı´": 8313,
      "My": 8314,
      "Ġ32": 8315,
      "éĻįéĽ¨": 8316,
      "åı¯ä»¥è¢«åĪĨç±»ä¸º": 8317,
      "ç¢Ĺä¸Ń": 8318,
      "æĬ¼": 8319,
      "Ġapple": 8320,
      "å®ĥä»¬æĺ¯": 8321,
      "è³ĩ": 8322,
      "68": 8323,
      "we": 8324,
      "ä¸Ģå¹ħ": 8325,
      "å¤©æķ°": 8326,
      "å¤©æĸĩåŃ¦": 8327,
      "Ġmore": 8328,
      "è®¤åı¯": 8329,
      "Ġhis": 8330,
      "é¡ºåĪ©": 8331,
      "ä½łèĥ½åĳĬè¯īæĪĳ": 8332,
      "Ãł": 8333,
      "åĴĮçĽ®æłĩ": 8334,
      "å·¢": 8335,
      "è¡Įèµ°": 8336,
      "å¹³çŃī": 8337,
      "æĭ¿éĵģ": 8338,
      "åįĹæŀģæ´²": 8339,
      "çļĦæĬķèµĦ": 8340,
      "çŁĽçĽ¾": 8341,
      "Ġ==": 8342,
      "Ġyear": 8343,
      "è¿ŀè´¯": 8344,
      "åĩĨç¡®åľ°": 8345,
      "çĽĸèĮ¨æ¯Ķ": 8346,
      "åĮĸçŁ³": 8347,
      "æł¹æį®æĤ¨çļĦ": 8348,
      "æł¹æį®é¢ĺæĦı": 8349,
      "å¡«ç©º": 8350,
      "çļĦæłĩåĩĨ": 8351,
      "æĺ¯æŃ£ç¡®çļĦ": 8352,
      "Ġ35": 8353,
      "è¶ħè¶Ĭ": 8354,
      "ade": 8355,
      "è¯¦ç»Ĩä¿¡æģ¯": 8356,
      "çıįè´µ": 8357,
      "åľ¨ç»Ļå®ļçļĦæĸĩæľ¬ä¸Ń": 8358,
      "600": 8359,
      "æĺ¯ä¸Ģæľ¬": 8360,
      "è·³èĪŀ": 8361,
      "éĶĭ": 8362,
      "è¯¥æĸĩç«ł": 8363,
      "ren": 8364,
      "å¨ĺ": 8365,
      "åı¯ä»¥çľĭ": 8366,
      "ä¸ĬåŃ¦": 8367,
      "å¹¶éĢļè¿ĩ": 8368,
      "æµģæµª": 8369,
      "ict": 8370,
      "é©¬åħĭ": 8371,
      "å¤©ç©ºä¸Ń": 8372,
      "çĻ¼çı¾": 8373,
      "æĮīéĴ®": 8374,
      "çİ°ä»£ç¤¾ä¼ļ": 8375,
      "èµ¢å¾Ĺ": 8376,
      "Ð²": 8377,
      "æĪĳä»¬ä¼ļ": 8378,
      "æ·ĺ": 8379,
      "ç¿Ĵ": 8380,
      "å·²æĪĲä¸º": 8381,
      "è¯ķéªĮ": 8382,
      "èĶ¬èıľåĴĮ": 8383,
      "åŁºæľ¬çļĦ": 8384,
      "æ¡Īä¾ĭ": 8385,
      "åİŁåĪĽ": 8386,
      "ä¸Ģå®ļä¼ļ": 8387,
      "çĸ¯": 8388,
      "æ¤İ": 8389,
      "çĶ¨æĪ·æıĲä¾Ľ": 8390,
      "ĠIn": 8391,
      "ç¹ģæ®ĸ": 8392,
      "çļĦç»ıåİĨ": 8393,
      "æ¸ħçĲĨ": 8394,
      "äººå·¥æĻºèĥ½çļĦåıĳå±ķ": 8395,
      "Tæģ¤": 8396,
      "Ġ{": 8397,
      "åĲģ": 8398,
      "è¿ĻæĿ¡": 8399,
      "orm": 8400,
      "é¦ĸæ¬¡": 8401,
      "åĬłåħ¥éĢĤéĩı": 8402,
      "çļĦæł¼": 8403,
      "ign": 8404,
      "åĿĲæłĩ": 8405,
      "joy": 8406,
      "}{": 8407,
      "Ø©": 8408,
      "æĪĸç¼º": 8409,
      "Ġ45": 8410,
      "æ°ĳæĹı": 8411,
      "å¼ºçĥĪçļĦ": 8412,
      "åı¯ä»¥åİ»": 8413,
      "æķ£åıĳ": 8414,
      "çĪ±å¥½èĢħ": 8415,
      "æħ¢æħ¢åľ°": 8416,
      "frac": 8417,
      "pro": 8418,
      "Ġå¹´": 8419,
      "çļĦåĲĹ": 8420,
      "å½¹": 8421,
      "åħ¬åı¸åĲįç§°": 8422,
      "èĩªçĦ¶çļĦ": 8423,
      "çļĦäººåı£": 8424,
      "å²©çŁ³": 8425,
      "word": 8426,
      "å¤©åľ°": 8427,
      "å®ĥä¼ļ": 8428,
      "ç»ĻåĩºçļĦ": 8429,
      "èĩ³ä»Ĭ": 8430,
      "æıĲé«ĺäºĨ": 8431,
      "éĿĻéĿĻ": 8432,
      "åı¯ä»¥å¸®åĬ©æĪĳä»¬": 8433,
      "ID": 8434,
      "ä»ĸè¦ģ": 8435,
      "å°Ĩåħ¶ä¸Ń": 8436,
      "èĬĤçĤ¹": 8437,
      "ä¿ĿæĮģåģ¥åº·": 8438,
      "åĴĸåķ¡é¦Ĩ": 8439,
      "æĺ¥åŃ£": 8440,
      "å½¢æĪĲäºĨ": 8441,
      "çļĦæ²¹": 8442,
      "ä½łåĸľæ¬¢": 8443,
      "åĬłåĪ©": 8444,
      "æķĪåºĶ": 8445,
      "ãĢĤâĢĿ\\": 8446,
      "åĶĲä»£": 8447,
      "è»į": 8448,
      "çļĦç®ĢçŁŃ": 8449,
      "éĹ·": 8450,
      "åħ³å¿ĥ": 8451,
      "å¦Ĥæŀľä½łæĥ³è¦ģ": 8452,
      "çĶµåŃĲäº§åĵģ": 8453,
      "ui": 8454,
      "çļĦéĤ£": 8455,
      "ç¯ĩå°ıè¯´": 8456,
      "åĩłåıª": 8457,
      "Ġèĭ¹æŀľ": 8458,
      "æĸĩä¸Ń": 8459,
      "åħ¨æĸ°çļĦ": 8460,
      "æīĭæľ¯": 8461,
      "ĠIt": 8462,
      "èĪªçıŃ": 8463,
      "69": 8464,
      "æľ¬åľ°": 8465,
      "å½±åĥı": 8466,
      "æĸ¹æ³ķæĺ¯": 8467,
      "äºĶè¨Ģ": 8468,
      "æ¢µ": 8469,
      "ä¸ªäººåı£åĳ³": 8470,
      "çļĦæ¯ıä¸ª": 8471,
      "åĩĳ": 8472,
      "éľĢè¦ģèĢĥèĻĳ": 8473,
      "èĤ¿": 8474,
      "è®©ä»ĸä»¬": 8475,
      "è®©è¯»èĢħ": 8476,
      "æĸ¯çī¹": 8477,
      "çĶŁæ´»åľ¨": 8478,
      "ä¸½èİİ": 8479,
      "ions": 8480,
      "Ġgood": 8481,
      "åĺī": 8482,
      "å°¼äºļå·ŀ": 8483,
      "Ġadd": 8484,
      "Ġar": 8485,
      "åįİä¸½": 8486,
      "åıĳçĶŁäºĨ": 8487,
      "æĬ½è±¡": 8488,
      "å¥Ĺè£ħ": 8489,
      "åħ´è¶£çĪ±å¥½": 8490,
      "è©¹å§Ĩæĸ¯": 8491,
      ".'": 8492,
      "éĤª": 8493,
      "å¯¼èĪª": 8494,
      "æ´Ĺè¡£": 8495,
      "çļĦæŀľ": 8496,
      "åī¯è¯į": 8497,
      "æ¶µçĽĸäºĨ": 8498,
      "è¿Ľè¡Įç¿»è¯ĳ": 8499,
      "éĤ£ä¹Īå¦Ĥæŀľ": 8500,
      "ãĢĤ\"\"": 8501,
      "å®½åº¦": 8502,
      "ä¸Ģå¼Ģå§ĭ": 8503,
      "æµ©": 8504,
      "åħ¬å¯ĵ": 8505,
      "åīįæĿ¥": 8506,
      "åįĩçº§": 8507,
      "çľŁçļĦå¾Ī": 8508,
      "æĭĽèģĺ": 8509,
      "åĲŀ": 8510,
      "åĬłæĭ¿": 8511,
      "éķ¿è¢ĸ": 8512,
      "Ġwant": 8513,
      "ç®¡çĲĨåĴĮ": 8514,
      "ä¼łç»ŁæĸĩåĮĸ": 8515,
      "è§Ĩè§īæķĪæŀľ": 8516,
      "Ġ.": 8517,
      "è¿ĺæ²¡æľī": 8518,
      "ç¼Ŀ": 8519,
      "åīįè¡Į": 8520,
      "çİ¯å¢ĥåĴĮ": 8521,
      "import": 8522,
      "åĪĨç»Ļå°ıçº¢": 8523,
      "çļĦçĭ¬çī¹": 8524,
      "Ð¼": 8525,
      "åħ¹": 8526,
      "å¸Ĩ": 8527,
      "éĶĲ": 8528,
      "æĶ¶çº³": 8529,
      "ç¨ĭåºıåĳĺ": 8530,
      "éĶĻè¯¯çļĦ": 8531,
      "çļĦçĤ¹": 8532,
      "çļĦæį": 8533,
      "éĿŀå¸¸æľīè¶£": 8534,
      "ç»ĵæŀľä¸º": 8535,
      "èľ¡": 8536,
      "åĪĨåī²": 8537,
      "çŃīæĬĢæľ¯": 8538,
      "å°ıæĺİä¹°äºĨ": 8539,
      "éĴł": 8540,
      "çĶ¨ä¸Ńæĸĩ": 8541,
      "ä¸Ģä¸ªæĸ°çļĦ": 8542,
      "eng": 8543,
      "çĻ½èī²çļĦ": 8544,
      "çļĦæ¼Ķè®²": 8545,
      "Ñı": 8546,
      "åĩ¤": 8547,
      "æĶ¶çĽĬ": 8548,
      "ç´§å¯Ĩ": 8549,
      "è°¨æħİ": 8550,
      "è¿Ń": 8551,
      "Ġ22": 8552,
      "ä½Ļæķ°": 8553,
      "è´·æ¬¾": 8554,
      "åĴĮæĪĳ": 8555,
      "æĹ¶çļĦ": 8556,
      "æıĲåıĬ": 8557,
      "è¿ĺä¼ļ": 8558,
      "æĹłèģĬ": 8559,
      "ä½łåı¯ä»¥ä½¿çĶ¨": 8560,
      "Ġ80": 8561,
      "æĻ®åıĬ": 8562,
      "Ġque": 8563,
      "æ²Ĳæµ´": 8564,
      "åĴ³": 8565,
      "æĪĲå¹´": 8566,
      "ç»Ļå°ıçº¢": 8567,
      "æĢ»éĥ¨": 8568,
      "ç»ĻæĪĳè®²": 8569,
      "é¸¡ç¿ħ": 8570,
      "ç²¾åĬĽ": 8571,
      "imes": 8572,
      "è©²": 8573,
      "æł¹æį®æıĲä¾ĽçļĦæĸĩæľ¬": 8574,
      "çļĦæĳĦåħ¥": 8575,
      "ä»ĸäººçļĦ": 8576,
      "ä½ĵåŀĭ": 8577,
      "èĬ±çĵ£": 8578,
      "æ·±åıĹ": 8579,
      "ä¼ĺåħĪçº§": 8580,
      "æĩĴæĥ°çļĦçĭĹ": 8581,
      "'m": 8582,
      "ta": 8583,
      "ä¸Ģå±Ĥ": 8584,
      "ä¸įåĸľæ¬¢": 8585,
      "æĬļ": 8586,
      "èĬ½": 8587,
      "èĪĮ": 8588,
      "èĥ½å¤Łå¸®åĬ©": 8589,
      "æİ¨èįĲä¸Ģæ¬¾": 8590,
      "æ³¢éĤ£": 8591,
      "æĸ°é²ľçļĦ": 8592,
      "Ġwhat": 8593,
      "æĪĸæľįåĬ¡": 8594,
      "èĢĮåıĪ": 8595,
      "è¿ĲèĲ¥": 8596,
      "çļĦæłĩå¿Ĺ": 8597,
      "æĸĲæ³¢éĤ£": 8598,
      "æĸĲæ³¢éĤ£å¥ĳ": 8599,
      "SA": 8600,
      "ox": 8601,
      "å¯¹ä»¥ä¸ĭåı¥åŃĲ": 8602,
      "åİ»çľĭ": 8603,
      "çļĦç³»": 8604,
      "ä¸įåı¯æĪĸç¼º": 8605,
      "å´ĩ": 8606,
      "çļĦçĻ½": 8607,
      "çļĦæĽ´": 8608,
      "ç»ļ": 8609,
      "çļĦç¯": 8610,
      "è¯·åĨį": 8611,
      "è¿ĽåĮĸ": 8612,
      "æŃ£æĸ¹å½¢": 8613,
      "alk": 8614,
      "å°¿çĹħ": 8615,
      "ç»ĻæĪĳä»¬": 8616,
      "ä¹ĲéĺŁ": 8617,
      "èĻķ": 8618,
      "èĽĻ": 8619,
      "Ġknow": 8620,
      "çļĦä»·æł¼æĺ¯": 8621,
      "åµ": 8622,
      "çī§": 8623,
      "é«ĺåĵģè´¨": 8624,
      "Ġinter": 8625,
      "åĵģçīĮçļĦ": 8626,
      "åľ°åĮºçļĦ": 8627,
      "ĠEnglish": 8628,
      "çĪĨçĤ¸": 8629,
      "×Ļ×": 8630,
      "ä¸ĭäºĨ": 8631,
      "åı¯ä»¥ä¸º": 8632,
      "æĿ¥æııè¿°": 8633,
      "å¤§èĴľ": 8634,
      "ç¼ł": 8635,
      "åıĸä»£": 8636,
      "æİ¥æĶ¶": 8637,
      "æĪĸèĢħæĺ¯": 8638,
      "ä¼ĳéĹ²è£¤": 8639,
      "æĭįæĳĦ": 8640,
      "éĻ¶çĵ·": 8641,
      "to": 8642,
      "æ³¼": 8643,
      "åĵ¡": 8644,
      "æĿ¥è¡¨è¾¾": 8645,
      "åİŁæĸĻ": 8646,
      "äººå·¥æĻºèĥ½åĴĮ": 8647,
      "çĥŃæ°´": 8648,
      "éĢĻäºĽ": 8649,
      "çĽĴåŃĲ": 8650,
      "è¶³çĲĥæ¯ĶèµĽ": 8651,
      "ä¸ĢçĶŁ": 8652,
      "æĮ¤": 8653,
      "åĬłç»Ĵ": 8654,
      "çĪª": 8655,
      "çĪµ": 8656,
      "çģ¿": 8657,
      "èĬĤçľģ": 8658,
      "æµģæ°´": 8659,
      "æĪĺèĥľ": 8660,
      "è¾¹ç¼ĺ": 8661,
      "æķĻæİĪ": 8662,
      "09": 8663,
      "ãĢĤãĢĤ": 8664,
      "ä¸Ģè¾¹": 8665,
      "ä¸įè§ģ": 8666,
      "åıĳçĶµ": 8667,
      "æĶ¶èİ·": 8668,
      "å¸ĥæĸ¯": 8669,
      "çļĦæŃ£ç¡®": 8670,
      "å¤¹åħĭ": 8671,
      "æıĲä¾ĽçļĦä¿¡æģ¯": 8672,
      "åı£ç½©": 8673,
      "é¤Ĳåħ·": 8674,
      "è¿ĳä¹īè¯į": 8675,
      "ĠçĮ«": 8676,
      "æĪĳåİ»äºĨ": 8677,
      "è¡¨æĥħ": 8678,
      "è´¨åľ°": 8679,
      "ç«ĭä½ĵ": 8680,
      "èħĶ": 8681,
      "çļĦäººåĲį": 8682,
      "éĺ¿å°Ķ": 8683,
      "03": 8684,
      "âĢĺ": 8685,
      "ä»»åĬ¡ä¸Ń": 8686,
      "è®¡ç®Ĺæľºç³»ç»Ł": 8687,
      "å°Ĩåħ¶ä¸ŃçļĦ": 8688,
      "ĠBe": 8689,
      "é³Ħ": 8690,
      "çļĦæķ£æĸĩ": 8691,
      "åĳµ": 8692,
      "å¤§æĸ¹": 8693,
      "å±ķè§Ī": 8694,
      "å¤įåĪ¶": 8695,
      "ä¸ªäººçļĦ": 8696,
      "éĩįè¦ģçļĦä½ľçĶ¨": 8697,
      "é¥®é£Łä¹łæĥ¯": 8698,
      "åģľæŃ¢": 8699,
      "æµĵç¼©åĴĸåķ¡": 8700,
      "GB": 8701,
      "ä¸ĢåįĬ": 8702,
      "å¥³äºº": 8703,
      "Ġname": 8704,
      "å®ĩå®Ļä¸Ń": 8705,
      "æĦŁè°¢æĤ¨": 8706,
      "æĹģè¾¹": 8707,
      "æŀģç«¯å¤©æ°Ķ": 8708,
      "ject": 8709,
      "Ã¼": 8710,
      "ä»¥ä¸ĭåĩłä¸ª": 8711,
      "åįķåħĥ": 8712,
      "ise": 8713,
      "éŁ³é¢ĳ": 8714,
      "ç¬¬ä¸īä¸ª": 8715,
      "çĶ»å®¶": 8716,
      "å¤ªç©ºæİ¢ç´¢": 8717,
      "áŁĴ": 8718,
      "éĸĭå§ĭ": 8719,
      "random": 8720,
      "à¸²à¸": 8721,
      "éĥ½è¦ģ": 8722,
      "ç¼ĸçłģ": 8723,
      "wo": 8724,
      "çļĦæĹ¶åħī": 8725,
      "ï¼ļ(": 8726,
      "æ¯Ķå°ıçº¢": 8727,
      "èº²": 8728,
      "èĩ³äºİ": 8729,
      "è¿ľæĸ¹": 8730,
      "Ġevery": 8731,
      "IT": 8732,
      "åħīæ»ĳ": 8733,
      "æİ¨èįĲä¸Ģæľ¬": 8734,
      "çļĦæľĢå¤§": 8735,
      "ML": 8736,
      "æĹ·": 8737,
      "èĬĤèĥ½": 8738,
      "ä¸Ńæĸĩæĸĩæľ¬": 8739,
      "çļĦæĻ®": 8740,
      "å®Įæķ´çļĦ": 8741,
      "æĿĨ": 8742,
      "åħ±åĴĮ": 8743,
      "å²Ĺ": 8744,
      "èĢĲå¿ĥ": 8745,
      "è¿Ļé¦ĸæŃĮæĽ²": 8746,
      "å¤ªéĺ³ç³»ä¸ŃæľĢ": 8747,
      "éĿ¢ä¸´çĿĢ": 8748,
      "å¼ĢæĶ¾å¼ı": 8749,
      "\"\"": 8750,
      "ä½łæľī": 8751,
      "æĦŁæģ©": 8752,
      "ç»Ļå®ļä¸Ģæ®µ": 8753,
      "ç¥Ī": 8754,
      "ä¸»é¢ĺåĴĮ": 8755,
      "çłĶç©¶äººåĳĺ": 8756,
      "éľ²èĲ¥": 8757,
      "æ°¸æģĴ": 8758,
      "çĽĳæİ§": 8759,
      "çļĦèĥĮæĻ¯": 8760,
      "åĩ¸": 8761,
      "èĥĢ": 8762,
      "å¼ºåĮĸ": 8763,
      "çĽ´çº¿": 8764,
      "æ¤°": 8765,
      "ç»ĻæĪĳæİ¨èįĲä¸ĢäºĽ": 8766,
      "è¿ĲåĬ¨åĴĮ": 8767,
      "NN": 8768,
      "çļĦçĶŁçī©": 8769,
      "æŀª": 8770,
      "ç³ĸå°¿çĹħ": 8771,
      "æİ¥ç§į": 8772,
      "èĩ³åħ³éĩįè¦ģ": 8773,
      "åľ£æ¯įéĻ¢": 8774,
      "ä¸įçĶ¨": 8775,
      "å®ĥå°Ĩ": 8776,
      "æ²Ĵ": 8777,
      "arr": 8778,
      "Ġ28": 8779,
      "æļ®": 8780,
      "çİ¯å¢ĥä¸Ń": 8781,
      "éª¨å¤´": 8782,
      "æĭĵå±ķ": 8783,
      "old": 8784,
      "çļĦåŃĺåľ¨": 8785,
      "çļĦéĿ¢ç§¯": 8786,
      "ä½łæĥ³è¦ģ": 8787,
      "æĤ¨æĥ³è¦ģ": 8788,
      "åĻ¨åĴĮ": 8789,
      "æĿ¡æ¬¾": 8790,
      "ç²¾éĢī": 8791,
      "ĠÃł": 8792,
      "åı¯ä»¥è¢«å½Ĵç±»ä¸º": 8793,
      "duct": 8794,
      "ny": 8795,
      "çļĦéĵħç¬Ķ": 8796,
      "ç§¦": 8797,
      "æķ°çĽ®": 8798,
      "ä½łåı¯ä»¥å°Ŀè¯ķ": 8799,
      "éĺ³åħīä¸ĭ": 8800,
      "æľĢå°ıåĢ¼": 8801,
      "ĠQ": 8802,
      "æĤ¨ä¹Łåı¯ä»¥": 8803,
      "ä¹Ĳè§Ĥ": 8804,
      "åŃ¦ä¹łæĸ°": 8805,
      "äº«åıĹçĿĢ": 8806,
      "éĺ¿éĩĮ": 8807,
      "èķ´": 8808,
      "Ġje": 8809,
      "èļĬ": 8810,
      "43": 8811,
      "å¤ł": 8812,
      "æĺ¯ä»Ģéº¼": 8813,
      "å°ıèĬ³": 8814,
      "è¯·éļıæĹ¶": 8815,
      "ern": 8816,
      "åĽłä¸ºä»ĸ": 8817,
      "äººåĲįåĴĮ": 8818,
      "ï¿¥": 8819,
      "çļĦå¼Ģå¤´": 8820,
      "äºĨä»ĸ": 8821,
      "åĨ»": 8822,
      "é»ĳèī²çļĦ": 8823,
      "éĺ²æ°´": 8824,
      "åŁºäºİä»¥ä¸Ĭ": 8825,
      "ä¸Ģå®ļè¦ģ": 8826,
      "æģĲæĥ§": 8827,
      "è¯ĨåĪ«åĩºæĸĩæľ¬ä¸ŃçļĦåħ³éĶ®è¯į": 8828,
      "çº¢çĥ§èĤī": 8829,
      "çļĦåĴĮ": 8830,
      "åı¯ä»¥ä½¿": 8831,
      "æĿ¥è¡¨ç¤º": 8832,
      "æĮ«": 8833,
      "åħ³èģĶ": 8834,
      "ane": 8835,
      "éĥ½è¢«": 8836,
      "çħ¸": 8837,
      "APP": 8838,
      "ä¸¢": 8839,
      "åı¯ä»¥åĳĬè¯īæĪĳ": 8840,
      "æĽ´åĸľæ¬¢": 8841,
      "ä¼łæĦŁ": 8842,
      "åĬ¨çī©åĽŃ": 8843,
      "2023": 8844,
      "åģıè§ģ": 8845,
      "autif": 8846,
      "ä»¥ä¸ĬçļĦ": 8847,
      "è¿ĩæĿ¥": 8848,
      "Ġtra": 8849,
      "ound": 8850,
      "åķĨåľº": 8851,
      "å¿«éĢŁåıĳå±ķ": 8852,
      "èıłèĲĿ": 8853,
      "46": 8854,
      "Sure": 8855,
      "æµĩ": 8856,
      "åĲİéĿ¢": 8857,
      "éĥİ": 8858,
      "åħ±é¸£": 8859,
      "æĪĺçķ¥": 8860,
      "çļĦæł·": 8861,
      "æĪĳä»¬éľĢè¦ģå°Ĩ": 8862,
      "ä»£åħ¥åħ¬å¼ı": 8863,
      "$ï¼Į": 8864,
      "åĴĮç®¡çĲĨ": 8865,
      "åĬ²": 8866,
      "çĶ¨æ³ķ": 8867,
      "æľĢåıĹæ¬¢è¿İçļĦ": 8868,
      "igh": 8869,
      "æ¹ĸæ³Ĭ": 8870,
      "èĸ¯çīĩ": 8871,
      "å°ĳéĩı": 8872,
      "ç§ĳæĬĢæľīéĻĲåħ¬åı¸": 8873,
      "ä½ľä¸ºä¸ĢåĲį": 8874,
      "ä¸ĭæĸĩä¸ŃçļĦåħ³éĶ®è¯į": 8875,
      "98": 8876,
      "ä¸Ģç¾¤": 8877,
      "åĲŁ": 8878,
      "åľ¨è¯¥": 8879,
      "æłı": 8880,
      "erry": 8881,
      "ä¸ĸçķĮä¸Ń": 8882,
      "åĥıæĺ¯": 8883,
      "æ±īåŃĹ": 8884,
      "çļĦæĬ¥åĳĬ": 8885,
      "æĿ¥å¸®åĬ©": 8886,
      "æĸĩæľ¬åĪĨç±»": 8887,
      "èĩªçĦ¶é£İåħī": 8888,
      "æĿĲæĸĻåĴĮ": 8889,
      "åĨ·éĿĻ": 8890,
      "æ··åĲĪåľ¨ä¸Ģèµ·": 8891,
      "å±ķçİ°åĩº": 8892,
      "EO": 8893,
      "Īļ": 8894,
      "å¸Ĳ": 8895,
      "æĿ¥å®ĮæĪĲ": 8896,
      "ä¹Łæĺ¯ä¸Ģä¸ª": 8897,
      "èį«": 8898,
      "æŃ£æĸĩ": 8899,
      "ä¸ĢäºĽäºº": 8900,
      "åĵįåºĶ": 8901,
      "è¯·éĹ®ä»ĸ": 8902,
      "äº§çĶŁçļĦ": 8903,
      "CT": 8904,
      "ru": 8905,
      "ä¸Ģä¸ªåħ³äºİ": 8906,
      "æĦŁäºº": 8907,
      "ç¬¬åĽĽ": 8908,
      "ask": 8909,
      "æĺ¥é£İ": 8910,
      "æĭ¥åłµ": 8911,
      "é¢ĳç¹ģ": 8912,
      "Ġrand": 8913,
      "åı¤åħ¸éŁ³ä¹Ĳ": 8914,
      "è´¾å®Ŀçİī": 8915,
      "52": 8916,
      "ä»¥æŃ¤": 8917,
      "æĬ«": 8918,
      "å¹´åº¦": 8919,
      "çĽ¸æľº": 8920,
      "Ġdif": 8921,
      "æīĵçł´": 8922,
      "åĬŀæ³ķ": 8923,
      "è¿·äºº": 8924,
      "ç»ıåİĨäºĨ": 8925,
      "åįıåĬ©": 8926,
      "son": 8927,
      "å¤§éĻĨ": 8928,
      "å°Ĩäºİ": 8929,
      "æ·Į": 8930,
      "å¼Ģè½¦": 8931,
      "éĩĳå±±": 8932,
      "å·¥ä½ľæķĪçİĩ": 8933,
      "åįĹéĥ¨": 8934,
      "æĭĤéĿ¢": 8935,
      "çļĦéķ¿": 8936,
      "çļĦäºĭå®ŀ": 8937,
      "æĺ¯ä¸įæĺ¯": 8938,
      "è¿Ļä¹Łæĺ¯": 8939,
      "èĩªåĪ¶": 8940,
      "æĥħä¾£": 8941,
      "åºĶå½ĵ": 8942,
      "å¦ĤæŀľæĪĳä»¬": 8943,
      "äººä»¬åı¯ä»¥": 8944,
      "æ¶ĪéĻ¤": 8945,
      "å¸®æĪĳçĶŁæĪĲ": 8946,
      "ä½łåı¯ä»¥å¸®æĪĳ": 8947,
      "è±ªåįİ": 8948,
      "Ġresponse": 8949,
      "Script": 8950,
      "Âł": 8951,
      "æľīåĩłä¸ª": 8952,
      "çĤ¹åĴĮ": 8953,
      "åıĹä¼Ĺ": 8954,
      "ased": 8955,
      "éĹ¨åı£": 8956,
      "ç¼ĸåĨĻä¸Ģæ®µ": 8957,
      "çļĦçŁŃè¯Ń": 8958,
      "èĩªåĬ¨é©¾é©¶æ±½è½¦": 8959,
      "çļĦæ¬¡æķ°": 8960,
      "éĤ£æĪĳ": 8961,
      "èĬ±åĦ¿": 8962,
      "æİ¨è¿Ľ": 8963,
      "æĿ¡çº¹": 8964,
      "è¡¨è¾¾å¯¹": 8965,
      "çĥ¤åĪ¶": 8966,
      "è¿Ļæĺ¯ä¸Ģæ®µ": 8967,
      "æī¿æĭħ": 8968,
      "å®ħ": 8969,
      "äººéĹ´": 8970,
      "çİ°æľī": 8971,
      "è¾¾åĪ°äºĨ": 8972,
      "çŁŃæļĤ": 8973,
      "è½»çĽĪ": 8974,
      "ç£ħ": 8975,
      "Ġcomp": 8976,
      "äººæ°ĳå¸ģ": 8977,
      "çļĦçĥ¤ç®±": 8978,
      "çļĦæ¹": 8979,
      "åĳĢ": 8980,
      "ä¸Ĭè¡£": 8981,
      "çī¹æľĹ": 8982,
      "åıĺä¸º": 8983,
      "éĿŀå¸¸åĸľæ¬¢": 8984,
      "æ¯ıä¸ªæľĪ": 8985,
      "Ã§": 8986,
      "ĠZ": 8987,
      "Ġåħ¶": 8988,
      "å¹¶ä¸İ": 8989,
      "çĦĻ": 8990,
      "éĢļé¡º": 8991,
      "Ġfriend": 8992,
      "åıĳçĶŁçļĦ": 8993,
      "éħ±æ±ģ": 8994,
      "çļĦæ²³": 8995,
      "çļĦæĢ§æł¼": 8996,
      "æĪĳçĽ¸ä¿¡": 8997,
      "åĵŃ": 8998,
      "è¯·å°Ĩä»¥ä¸ĭ": 8999,
      "æł¼åħ°": 9000,
      "ç©ºè°ĥ": 9001,
      "ä»Ĭå¤©çļĦ": 9002,
      "Ġour": 9003,
      "ä¸Ĭåİ»": 9004,
      "åıĳåħī": 9005,
      "æ»¿": 9006,
      "æ¯ıä¸ªäººçļĦ": 9007,
      "ä¸»è¦ģæĺ¯": 9008,
      "æĪıåī§": 9009,
      "æĪĳä¼ļå°½åĬĽ": 9010,
      "å½°æĺ¾": 9011,
      "æ¸łéģĵ": 9012,
      "ious": 9013,
      "å¸¶": 9014,
      "æĽ´å¤§": 9015,
      "è¯·æıĲåıĸ": 9016,
      "åĨħç½®": 9017,
      "å¦Ĥæŀľä¸Ģä¸ª": 9018,
      "åİĨåı²ä¸ĬæľĢ": 9019,
      "qrt": 9020,
      "æĺ¯ç§¯æŀģçļĦ": 9021,
      "åĵĩ": 9022,
      "èıĬ": 9023,
      "æ¸¸è§Ī": 9024,
      "å¤ªå¹³": 9025,
      "äºĨä¸Ģåıª": 9026,
      "æ¨¡åŀĭçļĦ": 9027,
      "Ġthere": 9028,
      "çļĦæĢĿç»´": 9029,
      "è°ľè¯Ń": 9030,
      "çļĦçĹħ": 9031,
      "çļĦæ¨¡åŀĭ": 9032,
      "çļĦè¯įæ±ĩ": 9033,
      "çī¢": 9034,
      "å¤§åİ¦": 9035,
      "è¿ĩæķı": 9036,
      "åĽłæŃ¤æĹłæ³ķ": 9037,
      "åľºåľ°": 9038,
      "æĭ¬åı·": 9039,
      "ä¸¤ä¸ªæķ°": 9040,
      "éĢıè¿ĩ": 9041,
      "å®ĩå®ĻçļĦ": 9042,
      "æĿĳåºĦ": 9043,
      "å¤įä»ĩèĢħ": 9044,
      "å¥Ī": 9045,
      "âĢ¢": 9046,
      "å°ıåĲĥ": 9047,
      "æĽ³": 9048,
      "æ¸¡": 9049,
      "ç©´": 9050,
      "å¤ĸéĿ¢": 9051,
      "èģ²": 9052,
      "æīĭéĩĮ": 9053,
      "èĽĽ": 9054,
      "æīĢæľīäºº": 9055,
      "ãģ¯": 9056,
      "å½¢æĪĲçļĦ": 9057,
      "èģļç±»": 9058,
      "æĵįä½ľç³»ç»Ł": 9059,
      "çļĦæ±½è½¦": 9060,
      "æĸĲæ³¢éĤ£å¥ĳæķ°åĪĹ": 9061,
      "åĴĮä¸ĢäºĽ": 9062,
      "éĢ¢": 9063,
      "æ¨Ĥ": 9064,
      "ç©ºæł¼": 9065,
      "çİĩåĴĮ": 9066,
      "Ġher": 9067,
      "éĿĴå°ĳå¹´": 9068,
      "æľīå¤ļå°ĳä¸ª": 9069,
      "ä¼¯çī¹": 9070,
      "åħ¬äº¤è½¦": 9071,
      "ãĢĤ```": 9072,
      "å¾Īå®¹æĺĵ": 9073,
      "çİ°åľ¨è¯·": 9074,
      "åĮĹæ¬§": 9075,
      "çļĦæĢ»åĴĮ": 9076,
      "å¹¶è¾ĵåĩºç»ĵæŀľ": 9077,
      "é©±åĬ¨": 9078,
      "Ġ2021": 9079,
      "åı¯ä»¥åĨį": 9080,
      "æĺ¯ä¸Ģåº§": 9081,
      "æ²¡æľīæıĲä¾Ľ": 9082,
      "çĭĹåĴĮ": 9083,
      "ä»ĺåĩº": 9084,
      "æĬĺåıł": 9085,
      "çĻ»å±±": 9086,
      "åŁĥåıĬ": 9087,
      "æĺ¯æĺŁæľŁ": 9088,
      "åĲįåįķ": 9089,
      "åĸī": 9090,
      "ä¿¡å¿µ": 9091,
      "ä¾¿å®ľ": 9092,
      "çļĦæ¬¾": 9093,
      "å¯¹ç»Ļå®ļçļĦ": 9094,
      "å¹¶è¦ģæ±Ĥ": 9095,
      "æľĢèĳĹåĲįçļĦ": 9096,
      "æŀĹé»Ľçİī": 9097,
      "æİĴåºıåĲİçļĦ": 9098,
      "çļĦå¸®åĬ©": 9099,
      "ä»¥åĨħ": 9100,
      "çľī": 9101,
      "æĹłéľĢ": 9102,
      "éĩįè¦ģæĢ§": 9103,
      "æ»¡äºĨ": 9104,
      "æĩĪ": 9105,
      "çīĻé½¿": 9106,
      "åĬłåĪ©ç¦ı": 9107,
      "ä¸įéĢĤ": 9108,
      "çī©èģĶç½ĳ": 9109,
      "æ¯Ķè³½": 9110,
      "ä»İæŃ¤": 9111,
      "èİ·èĥľ": 9112,
      "äºĶç§į": 9113,
      "æĺ¯åĲ¦æŃ£ç¡®": 9114,
      "æĽ´å¤ļä¿¡æģ¯": 9115,
      "çĤĴé¥Ń": 9116,
      "çī¹åĪ«çļĦ": 9117,
      "08": 9118,
      "éĩıåĴĮ": 9119,
      "åĲįçļĦ": 9120,
      "å»ī": 9121,
      "çģ«çģ¾": 9122,
      "æĴ¼": 9123,
      "ä½ıå®¿": 9124,
      "æĹ¥å¸¸çĶŁæ´»ä¸Ń": 9125,
      "æĪĳä¸įçŁ¥éģĵ": 9126,
      "ä»İæľª": 9127,
      "çļĦæľĢæĸ°": 9128,
      "èºº": 9129,
      "åĪ©äºļ": 9130,
      "ä¹°åĪ°": 9131,
      "èħĮ": 9132,
      "å®ŀçİ°äºĨ": 9133,
      "ä»£è¡¨çĿĢ": 9134,
      "èŃ°": 9135,
      "ä¾ĭåŃĲä¸Ń": 9136,
      "çļĦçģ¯": 9137,
      "çī¹æ®ĬçļĦ": 9138,
      "mo": 9139,
      "ĠçīĽå¥¶": 9140,
      "æįŀ": 9141,
      "onjour": 9142,
      "æ£ķèī²": 9143,
      "è¶£åĳ³": 9144,
      "é£İæł¼åĴĮ": 9145,
      "åĳ¼åĲģ": 9146,
      "éĢĲæŃ¥": 9147,
      "éĻĦè¿ĳçļĦ": 9148,
      "çļĦæģĲ": 9149,
      "åİĮ": 9150,
      "å¤ļé¡¹": 9151,
      "å¹¶å°Ĩå®ĥä»¬": 9152,
      "èĲĮ": 9153,
      "ãĢĭï¼ļ": 9154,
      "Pythonç¨ĭåºı": 9155,
      "èĿī": 9156,
      "å®ľäºº": 9157,
      "ellig": 9158,
      "åĲĦä¸ªé¢ĨåŁŁ": 9159,
      "äººéĻħåħ³ç³»": 9160,
      "\")": 9161,
      "IMD": 9162,
      "La": 9163,
      "Ġæľī": 9164,
      "çİ°çĬ¶": 9165,
      "çŁ®": 9166,
      "åħ¬ä¸»": 9167,
      "åĿª": 9168,
      "åĴĸåķ¡åĽł": 9169,
      "åĨĽäºĭ": 9170,
      "ç½ĳç«Ļä¸Ĭ": 9171,
      "ç¨įçŃī": 9172,
      "mith": 9173,
      "ä¸Ģæľ¬ä¹¦": 9174,
      "ä¹Łåı¯èĥ½": 9175,
      "ouse": 9176,
      "åĲĦç§įåĲĦ": 9177,
      "verse": 9178,
      "çļĦä¸»é¢ĺåĴĮ": 9179,
      "æī¶": 9180,
      "å®ĥæĺ¯ä¸Ģç§į": 9181,
      "éĤ£ä¹Īè¯·éĹ®": 9182,
      "è®¾è®¡å¸Ī": 9183,
      "çĦ¶åĲİåľ¨": 9184,
      "åħ¨çĲĥæ°ĶåĢĻåıĺåĮĸ": 9185,
      "å½©èĻ¹": 9186,
      "éĺ¿åĩ¡": 9187,
      "Ġune": 9188,
      "çļĦæĮĩå¯¼": 9189,
      "NBA": 9190,
      "åĴĮäººç±»": 9191,
      "æĪĲä¸ºä¸ĢåĲį": 9192,
      "æıĲåıĸåĩºæĿ¥": 9193,
      "ç§¯æŀģçļĦæĥħæĦŁ": 9194,
      "è¿İæİ¥": 9195,
      "éĺ¿åĩ¡è¾¾": 9196,
      "Ùģ": 9197,
      "åįĢ": 9198,
      "éľĢè¦ģæł¹æį®": 9199,
      "ä¹Łå°Ĩ": 9200,
      "Ġlanguage": 9201,
      "çĥ¤é¸Ń": 9202,
      "åĿĹå·§åħĭåĬĽ": 9203,
      "åŃĹæ¯įè¡¨": 9204,
      "åºķéĥ¨": 9205,
      "áŀ¶": 9206,
      "å¤įä»ĩèĢħèģĶçĽŁ": 9207,
      "æĪĳåĽ½": 9208,
      "å¯¹æĤ¨": 9209,
      "æĮ¡": 9210,
      "è¿ĺåİŁ": 9211,
      "æł¹æį®åħ³éĶ®è¯į": 9212,
      "å¼ķçĶ¨": 9213,
      "æĬĬå®ĥ": 9214,
      "éŁ³ä¹Ĳå®¶": 9215,
      "èµ°åĪ°": 9216,
      "é£ŀèĪŀ": 9217,
      "è¡¨çİ°åĩºèī²": 9218,
      "åĴĮç»ıæµİ": 9219,
      "è¿ĽçĲĥ": 9220,
      "é¤ĲåİħçļĦ": 9221,
      "åŃ¦çĶŁçļĦ": 9222,
      "å¸ĤåľºèĲ¥éĶĢ": 9223,
      "åĽ°å¢ĥ": 9224,
      "autiful": 9225,
      "Ġä¸ºä»Ģä¹Ī": 9226,
      "çļĦåıĳçĶŁ": 9227,
      "Ġdon": 9228,
      "å¹²æĹ±": 9229,
      "æĤ¨åı¯ä»¥å°Ŀè¯ķ": 9230,
      "ows": 9231,
      "æ¯ıä¸ªæľĭåıĭåĪĨåĪ°": 9232,
      "è¯·çĶ¨ä¸Ńæĸĩ": 9233,
      "è¿Ŀåıį": 9234,
      "åıĻè¿°": 9235,
      "çļĦéĥ¨åĪĨ": 9236,
      "åĴĮæĬĢèĥ½": 9237,
      "ä¹Łè®¸": 9238,
      "åħ¬å¹³": 9239,
      "è®¡ç®Ĺå®ĥä»¬çļĦ": 9240,
      "èĵ¬": 9241,
      "ä¸ĩç¾İåħĥ": 9242,
      "çļĦæµª": 9243,
      "åį³åı¯å¾ĹåĪ°": 9244,
      "çµĲ": 9245,
      "ĠæĪĳä»¬": 9246,
      "çļĦä¹¦ç±į": 9247,
      "ä¸ªå°ıæĹ¶": 9248,
      "ä¸Ńèĭ±": 9249,
      "æĺ¾çĺ¦": 9250,
      "è®©æĪĳä»¬ä¸Ģèµ·": 9251,
      "æ²īæµ¸åľ¨": 9252,
      "af": 9253,
      "ij": 9254,
      "Ġå¯¹": 9255,
      "åĲ¨": 9256,
      "æ¶Ľ": 9257,
      "çķĮéĿ¢": 9258,
      "ä¸¤ä¸ªæľĭåıĭ": 9259,
      "éļıæĦı": 9260,
      "ä¸ĸçķĮä¸ĬæľĢé«ĺçļĦå±±å³°": 9261,
      "è³ª": 9262,
      "æĮĳéĢī": 9263,
      "ABC": 9264,
      "å¬": 9265,
      "åĴ¸": 9266,
      "ä»¥èİ·åıĸ": 9267,
      "å¹¶æł¹æį®": 9268,
      "äºĨä¸Ģç³»åĪĹ": 9269,
      "ä¸ĩéĩĮ": 9270,
      "çļĦç¼ĸç¨ĭè¯Ńè¨Ģ": 9271,
      "rad": 9272,
      "||": 9273,
      "åı¯çĶ¨äºİ": 9274,
      "åķĨåĵģæĸĩæ¡ĪçĶŁæĪĲ": 9275,
      "æ©¡çļ®": 9276,
      "åı¯è§ĨåĮĸ": 9277,
      "æĪĳçŁ¥éģĵ": 9278,
[...]
